{
  "version": "1.0",
  "truncation": {
    "direction": "Right",
    "max_length": 512,
    "strategy": "LongestFirst",
    "stride": 0
  },
  "padding": {
    "strategy": {
      "Fixed": 512
    },
    "direction": "Right",
    "pad_to_multiple_of": null,
    "pad_id": 0,
    "pad_type_id": 0,
    "pad_token": "[PAD]"
  },
  "added_tokens": [
    {
      "id": 0,
      "content": "[PAD]",
      "single_word": false,
      "lstrip": false,
      "rstrip": false,
      "normalized": false,
      "special": true
    },
    {
      "id": 1,
      "content": "[UNK]",
      "single_word": false,
      "lstrip": false,
      "rstrip": false,
      "normalized": false,
      "special": true
    },
    {
      "id": 2,
      "content": "[CLS]",
      "single_word": false,
      "lstrip": false,
      "rstrip": false,
      "normalized": false,
      "special": true
    },
    {
      "id": 3,
      "content": "[SEP]",
      "single_word": false,
      "lstrip": false,
      "rstrip": false,
      "normalized": false,
      "special": true
    },
    {
      "id": 4,
      "content": "[MASK]",
      "single_word": false,
      "lstrip": false,
      "rstrip": false,
      "normalized": false,
      "special": true
    },
    {
      "id": 30522,
      "content": "<EXP>",
      "single_word": false,
      "lstrip": false,
      "rstrip": false,
      "normalized": false,
      "special": true
    }
  ],
  "normalizer": {
    "type": "BertNormalizer",
    "clean_text": true,
    "handle_chinese_chars": true,
    "strip_accents": null,
    "lowercase": true
  },
  "pre_tokenizer": {
    "type": "BertPreTokenizer"
  },
  "post_processor": {
    "type": "TemplateProcessing",
    "single": [
      {
        "SpecialToken": {
          "id": "[CLS]",
          "type_id": 0
        }
      },
      {
        "Sequence": {
          "id": "A",
          "type_id": 0
        }
      },
      {
        "SpecialToken": {
          "id": "[SEP]",
          "type_id": 0
        }
      }
    ],
    "pair": [
      {
        "SpecialToken": {
          "id": "[CLS]",
          "type_id": 0
        }
      },
      {
        "Sequence": {
          "id": "A",
          "type_id": 0
        }
      },
      {
        "SpecialToken": {
          "id": "[SEP]",
          "type_id": 0
        }
      },
      {
        "Sequence": {
          "id": "B",
          "type_id": 1
        }
      },
      {
        "SpecialToken": {
          "id": "[SEP]",
          "type_id": 1
        }
      }
    ],
    "special_tokens": {
      "[CLS]": {
        "id": "[CLS]",
        "ids": [
          2
        ],
        "tokens": [
          "[CLS]"
        ]
      },
      "[SEP]": {
        "id": "[SEP]",
        "ids": [
          3
        ],
        "tokens": [
          "[SEP]"
        ]
      }
    }
  },
  "decoder": {
    "type": "WordPiece",
    "prefix": "##",
    "cleanup": true
  },
  "model": {
    "type": "WordPiece",
    "unk_token": "[UNK]",
    "continuing_subword_prefix": "##",
    "max_input_chars_per_word": 100,
    "vocab": {
      "[PAD]": 0,
      "[UNK]": 1,
      "[CLS]": 2,
      "[SEP]": 3,
      "[MASK]": 4,
      "<S>": 5,
      "<T>": 6,
      "!": 7,
      "\"": 8,
      "#": 9,
      "$": 10,
      "%": 11,
      "&": 12,
      "'": 13,
      "(": 14,
      ")": 15,
      "*": 16,
      "+": 17,
      ",": 18,
      "-": 19,
      ".": 20,
      "/": 21,
      "0": 22,
      "1": 23,
      "2": 24,
      "3": 25,
      "4": 26,
      "5": 27,
      "6": 28,
      "7": 29,
      "8": 30,
      "9": 31,
      ":": 32,
      ";": 33,
      "<": 34,
      "=": 35,
      ">": 36,
      "?": 37,
      "@": 38,
      "[": 39,
      "\\": 40,
      "]": 41,
      "^": 42,
      "_": 43,
      "`": 44,
      "a": 45,
      "b": 46,
      "c": 47,
      "d": 48,
      "e": 49,
      "f": 50,
      "g": 51,
      "h": 52,
      "i": 53,
      "j": 54,
      "k": 55,
      "l": 56,
      "m": 57,
      "n": 58,
      "o": 59,
      "p": 60,
      "q": 61,
      "r": 62,
      "s": 63,
      "t": 64,
      "u": 65,
      "v": 66,
      "w": 67,
      "x": 68,
      "y": 69,
      "z": 70,
      "{": 71,
      "|": 72,
      "}": 73,
      "~": 74,
      "¡": 75,
      "¢": 76,
      "£": 77,
      "¥": 78,
      "§": 79,
      "«": 80,
      "®": 81,
      "¯": 82,
      "°": 83,
      "±": 84,
      "²": 85,
      "³": 86,
      "´": 87,
      "µ": 88,
      "·": 89,
      "¹": 90,
      "º": 91,
      "»": 92,
      "¼": 93,
      "½": 94,
      "¾": 95,
      "¿": 96,
      "×": 97,
      "ß": 98,
      "æ": 99,
      "ð": 100,
      "ø": 101,
      "þ": 102,
      "đ": 103,
      "ħ": 104,
      "ı": 105,
      "ł": 106,
      "ŋ": 107,
      "œ": 108,
      "ƒ": 109,
      "ǂ": 110,
      "ɐ": 111,
      "ɑ": 112,
      "ɒ": 113,
      "ɔ": 114,
      "ɕ": 115,
      "ɖ": 116,
      "ə": 117,
      "ɛ": 118,
      "ɜ": 119,
      "ɟ": 120,
      "ɡ": 121,
      "ɣ": 122,
      "ɦ": 123,
      "ɨ": 124,
      "ɪ": 125,
      "ɫ": 126,
      "ɬ": 127,
      "ɮ": 128,
      "ɯ": 129,
      "ɲ": 130,
      "ɳ": 131,
      "ɵ": 132,
      "ɾ": 133,
      "ʀ": 134,
      "ʁ": 135,
      "ʂ": 136,
      "ʃ": 137,
      "ʈ": 138,
      "ʊ": 139,
      "ʋ": 140,
      "ʌ": 141,
      "ʎ": 142,
      "ʏ": 143,
      "ʐ": 144,
      "ʑ": 145,
      "ʒ": 146,
      "ʔ": 147,
      "ʕ": 148,
      "ʰ": 149,
      "ʲ": 150,
      "ʷ": 151,
      "ʻ": 152,
      "ʼ": 153,
      "ʾ": 154,
      "ʿ": 155,
      "ˀ": 156,
      "ˈ": 157,
      "ˌ": 158,
      "ː": 159,
      "˚": 160,
      "ˠ": 161,
      "ˤ": 162,
      "˥": 163,
      "˧": 164,
      "˩": 165,
      "α": 166,
      "β": 167,
      "γ": 168,
      "δ": 169,
      "ε": 170,
      "ζ": 171,
      "η": 172,
      "θ": 173,
      "ι": 174,
      "κ": 175,
      "λ": 176,
      "μ": 177,
      "ν": 178,
      "ξ": 179,
      "ο": 180,
      "π": 181,
      "ρ": 182,
      "ς": 183,
      "σ": 184,
      "τ": 185,
      "υ": 186,
      "φ": 187,
      "χ": 188,
      "ψ": 189,
      "ω": 190,
      "ϕ": 191,
      "а": 192,
      "б": 193,
      "в": 194,
      "г": 195,
      "д": 196,
      "е": 197,
      "ж": 198,
      "з": 199,
      "и": 200,
      "к": 201,
      "л": 202,
      "м": 203,
      "н": 204,
      "о": 205,
      "п": 206,
      "р": 207,
      "с": 208,
      "т": 209,
      "у": 210,
      "ф": 211,
      "х": 212,
      "ц": 213,
      "ч": 214,
      "ш": 215,
      "щ": 216,
      "ъ": 217,
      "ы": 218,
      "ь": 219,
      "э": 220,
      "ю": 221,
      "я": 222,
      "і": 223,
      "ј": 224,
      "љ": 225,
      "ћ": 226,
      "ա": 227,
      "բ": 228,
      "գ": 229,
      "դ": 230,
      "ե": 231,
      "զ": 232,
      "է": 233,
      "ը": 234,
      "թ": 235,
      "ի": 236,
      "լ": 237,
      "խ": 238,
      "ծ": 239,
      "կ": 240,
      "հ": 241,
      "ղ": 242,
      "մ": 243,
      "յ": 244,
      "ն": 245,
      "շ": 246,
      "ո": 247,
      "պ": 248,
      "ջ": 249,
      "ռ": 250,
      "ս": 251,
      "վ": 252,
      "տ": 253,
      "ր": 254,
      "ց": 255,
      "ւ": 256,
      "ք": 257,
      "א": 258,
      "ב": 259,
      "ג": 260,
      "ד": 261,
      "ה": 262,
      "ו": 263,
      "ז": 264,
      "ח": 265,
      "ט": 266,
      "י": 267,
      "כ": 268,
      "ל": 269,
      "ם": 270,
      "מ": 271,
      "ן": 272,
      "נ": 273,
      "ס": 274,
      "ע": 275,
      "פ": 276,
      "צ": 277,
      "ק": 278,
      "ר": 279,
      "ש": 280,
      "ת": 281,
      "ء": 282,
      "ا": 283,
      "ب": 284,
      "ة": 285,
      "ت": 286,
      "ث": 287,
      "ج": 288,
      "ح": 289,
      "خ": 290,
      "د": 291,
      "ذ": 292,
      "ر": 293,
      "ز": 294,
      "س": 295,
      "ش": 296,
      "ص": 297,
      "ض": 298,
      "ط": 299,
      "ع": 300,
      "غ": 301,
      "ف": 302,
      "ق": 303,
      "ك": 304,
      "ل": 305,
      "م": 306,
      "ن": 307,
      "ه": 308,
      "و": 309,
      "ى": 310,
      "ي": 311,
      "ک": 312,
      "ہ": 313,
      "ی": 314,
      "ः": 315,
      "अ": 316,
      "इ": 317,
      "क": 318,
      "ग": 319,
      "घ": 320,
      "च": 321,
      "ज": 322,
      "ट": 323,
      "ड": 324,
      "ण": 325,
      "त": 326,
      "द": 327,
      "ध": 328,
      "न": 329,
      "प": 330,
      "ब": 331,
      "भ": 332,
      "म": 333,
      "य": 334,
      "र": 335,
      "ल": 336,
      "व": 337,
      "श": 338,
      "ष": 339,
      "स": 340,
      "ह": 341,
      "ा": 342,
      "ि": 343,
      "ी": 344,
      "ो": 345,
      "ौ": 346,
      "ক": 347,
      "ত": 348,
      "ন": 349,
      "ব": 350,
      "ম": 351,
      "ল": 352,
      "া": 353,
      "ি": 354,
      "க": 355,
      "ச": 356,
      "த": 357,
      "ன": 358,
      "ம": 359,
      "ர": 360,
      "ள": 361,
      "வ": 362,
      "ா": 363,
      "ி": 364,
      "ு": 365,
      "ಾ": 366,
      "ก": 367,
      "ข": 368,
      "ง": 369,
      "จ": 370,
      "ช": 371,
      "ณ": 372,
      "ด": 373,
      "ต": 374,
      "ท": 375,
      "ธ": 376,
      "น": 377,
      "บ": 378,
      "ป": 379,
      "พ": 380,
      "ภ": 381,
      "ม": 382,
      "ย": 383,
      "ร": 384,
      "ล": 385,
      "ว": 386,
      "ศ": 387,
      "ษ": 388,
      "ส": 389,
      "ห": 390,
      "อ": 391,
      "ะ": 392,
      "า": 393,
      "เ": 394,
      "แ": 395,
      "ไ": 396,
      "་": 397,
      "ག": 398,
      "င": 399,
      "ဆ": 400,
      "န": 401,
      "ပ": 402,
      "မ": 403,
      "ရ": 404,
      "ြ": 405,
      "ა": 406,
      "დ": 407,
      "ე": 408,
      "ვ": 409,
      "თ": 410,
      "ი": 411,
      "ლ": 412,
      "მ": 413,
      "ნ": 414,
      "ო": 415,
      "რ": 416,
      "ს": 417,
      "ტ": 418,
      "უ": 419,
      "ქ": 420,
      "ხ": 421,
      "ᄀ": 422,
      "ᄂ": 423,
      "ᄃ": 424,
      "ᄅ": 425,
      "ᄆ": 426,
      "ᄇ": 427,
      "ᄉ": 428,
      "ᄋ": 429,
      "ᄌ": 430,
      "ᄎ": 431,
      "ᄐ": 432,
      "ᄒ": 433,
      "ᅡ": 434,
      "ᅢ": 435,
      "ᅥ": 436,
      "ᅧ": 437,
      "ᅩ": 438,
      "ᅪ": 439,
      "ᅮ": 440,
      "ᅳ": 441,
      "ᅵ": 442,
      "ᆨ": 443,
      "ᆫ": 444,
      "ᆯ": 445,
      "ᆷ": 446,
      "ᆼ": 447,
      "ក": 448,
      "ង": 449,
      "ត": 450,
      "ទ": 451,
      "ន": 452,
      "ប": 453,
      "ព": 454,
      "ម": 455,
      "រ": 456,
      "ស": 457,
      "ា": 458,
      "េ": 459,
      "ះ": 460,
      "ᵻ": 461,
      "‐": 462,
      "‑": 463,
      "–": 464,
      "—": 465,
      "―": 466,
      "‘": 467,
      "’": 468,
      "“": 469,
      "”": 470,
      "„": 471,
      "†": 472,
      "‡": 473,
      "•": 474,
      "…": 475,
      "‰": 476,
      "′": 477,
      "″": 478,
      "⁄": 479,
      "₂": 480,
      "₣": 481,
      "₤": 482,
      "₨": 483,
      "₩": 484,
      "€": 485,
      "₱": 486,
      "₹": 487,
      "ℓ": 488,
      "№": 489,
      "⅓": 490,
      "⅔": 491,
      "⅜": 492,
      "↑": 493,
      "→": 494,
      "⇌": 495,
      "∂": 496,
      "∆": 497,
      "∈": 498,
      "∑": 499,
      "−": 500,
      "∗": 501,
      "√": 502,
      "∞": 503,
      "∩": 504,
      "∴": 505,
      "≈": 506,
      "≡": 507,
      "≤": 508,
      "≥": 509,
      "⊂": 510,
      "⊕": 511,
      "⊗": 512,
      "⋅": 513,
      "☆": 514,
      "☉": 515,
      "♠": 516,
      "♣": 517,
      "♥": 518,
      "♦": 519,
      "♭": 520,
      "♯": 521,
      "⟨": 522,
      "⟩": 523,
      "ⴰ": 524,
      "ⴻ": 525,
      "ⵍ": 526,
      "ⵏ": 527,
      "、": 528,
      "〈": 529,
      "〉": 530,
      "「": 531,
      "」": 532,
      "『": 533,
      "』": 534,
      "〜": 535,
      "あ": 536,
      "い": 537,
      "う": 538,
      "え": 539,
      "お": 540,
      "か": 541,
      "き": 542,
      "く": 543,
      "け": 544,
      "こ": 545,
      "さ": 546,
      "し": 547,
      "す": 548,
      "せ": 549,
      "そ": 550,
      "た": 551,
      "ち": 552,
      "っ": 553,
      "つ": 554,
      "て": 555,
      "と": 556,
      "な": 557,
      "に": 558,
      "の": 559,
      "は": 560,
      "ひ": 561,
      "ふ": 562,
      "へ": 563,
      "ほ": 564,
      "ま": 565,
      "み": 566,
      "む": 567,
      "め": 568,
      "も": 569,
      "ゃ": 570,
      "や": 571,
      "ゆ": 572,
      "よ": 573,
      "ら": 574,
      "り": 575,
      "る": 576,
      "れ": 577,
      "ろ": 578,
      "わ": 579,
      "を": 580,
      "ん": 581,
      "ァ": 582,
      "ア": 583,
      "ィ": 584,
      "イ": 585,
      "ゥ": 586,
      "ウ": 587,
      "ェ": 588,
      "エ": 589,
      "ォ": 590,
      "オ": 591,
      "カ": 592,
      "キ": 593,
      "ク": 594,
      "ケ": 595,
      "コ": 596,
      "サ": 597,
      "シ": 598,
      "ス": 599,
      "セ": 600,
      "ソ": 601,
      "タ": 602,
      "チ": 603,
      "ッ": 604,
      "ツ": 605,
      "テ": 606,
      "ト": 607,
      "ナ": 608,
      "ニ": 609,
      "ネ": 610,
      "ノ": 611,
      "ハ": 612,
      "ヒ": 613,
      "フ": 614,
      "ヘ": 615,
      "ホ": 616,
      "マ": 617,
      "ミ": 618,
      "ム": 619,
      "メ": 620,
      "モ": 621,
      "ャ": 622,
      "ヤ": 623,
      "ュ": 624,
      "ユ": 625,
      "ョ": 626,
      "ヨ": 627,
      "ラ": 628,
      "リ": 629,
      "ル": 630,
      "レ": 631,
      "ロ": 632,
      "ワ": 633,
      "ン": 634,
      "・": 635,
      "ー": 636,
      "一": 637,
      "七": 638,
      "万": 639,
      "三": 640,
      "上": 641,
      "下": 642,
      "不": 643,
      "世": 644,
      "东": 645,
      "个": 646,
      "中": 647,
      "丸": 648,
      "主": 649,
      "久": 650,
      "之": 651,
      "乙": 652,
      "九": 653,
      "事": 654,
      "二": 655,
      "五": 656,
      "井": 657,
      "京": 658,
      "人": 659,
      "仙": 660,
      "代": 661,
      "令": 662,
      "件": 663,
      "伊": 664,
      "会": 665,
      "伝": 666,
      "佐": 667,
      "体": 668,
      "何": 669,
      "佛": 670,
      "作": 671,
      "你": 672,
      "信": 673,
      "倉": 674,
      "僕": 675,
      "元": 676,
      "光": 677,
      "克": 678,
      "全": 679,
      "八": 680,
      "公": 681,
      "六": 682,
      "内": 683,
      "写": 684,
      "出": 685,
      "分": 686,
      "刘": 687,
      "初": 688,
      "判": 689,
      "前": 690,
      "剣": 691,
      "劇": 692,
      "劉": 693,
      "動": 694,
      "勝": 695,
      "化": 696,
      "北": 697,
      "匹": 698,
      "十": 699,
      "千": 700,
      "华": 701,
      "南": 702,
      "印": 703,
      "原": 704,
      "取": 705,
      "口": 706,
      "古": 707,
      "可": 708,
      "台": 709,
      "史": 710,
      "号": 711,
      "司": 712,
      "合": 713,
      "同": 714,
      "名": 715,
      "君": 716,
      "周": 717,
      "和": 718,
      "四": 719,
      "団": 720,
      "国": 721,
      "國": 722,
      "園": 723,
      "土": 724,
      "在": 725,
      "地": 726,
      "坂": 727,
      "坊": 728,
      "型": 729,
      "城": 730,
      "堂": 731,
      "場": 732,
      "塊": 733,
      "士": 734,
      "夏": 735,
      "外": 736,
      "夜": 737,
      "夢": 738,
      "大": 739,
      "天": 740,
      "太": 741,
      "夫": 742,
      "奈": 743,
      "女": 744,
      "好": 745,
      "姉": 746,
      "姫": 747,
      "子": 748,
      "字": 749,
      "季": 750,
      "学": 751,
      "學": 752,
      "守": 753,
      "安": 754,
      "宗": 755,
      "官": 756,
      "定": 757,
      "宝": 758,
      "宮": 759,
      "家": 760,
      "寶": 761,
      "寺": 762,
      "尉": 763,
      "小": 764,
      "少": 765,
      "居": 766,
      "屋": 767,
      "山": 768,
      "島": 769,
      "川": 770,
      "州": 771,
      "工": 772,
      "巨": 773,
      "市": 774,
      "帝": 775,
      "師": 776,
      "常": 777,
      "平": 778,
      "年": 779,
      "幻": 780,
      "府": 781,
      "式": 782,
      "张": 783,
      "張": 784,
      "彼": 785,
      "後": 786,
      "御": 787,
      "德": 788,
      "心": 789,
      "志": 790,
      "思": 791,
      "恋": 792,
      "想": 793,
      "愛": 794,
      "成": 795,
      "我": 796,
      "战": 797,
      "戦": 798,
      "戸": 799,
      "所": 800,
      "手": 801,
      "撃": 802,
      "政": 803,
      "教": 804,
      "文": 805,
      "新": 806,
      "方": 807,
      "旋": 808,
      "旗": 809,
      "日": 810,
      "早": 811,
      "明": 812,
      "星": 813,
      "春": 814,
      "時": 815,
      "曲": 816,
      "書": 817,
      "月": 818,
      "有": 819,
      "望": 820,
      "朝": 821,
      "木": 822,
      "本": 823,
      "朱": 824,
      "李": 825,
      "村": 826,
      "条": 827,
      "来": 828,
      "東": 829,
      "松": 830,
      "林": 831,
      "校": 832,
      "楽": 833,
      "機": 834,
      "次": 835,
      "歌": 836,
      "正": 837,
      "武": 838,
      "殺": 839,
      "殿": 840,
      "氏": 841,
      "民": 842,
      "気": 843,
      "水": 844,
      "永": 845,
      "汉": 846,
      "江": 847,
      "河": 848,
      "治": 849,
      "泉": 850,
      "法": 851,
      "洋": 852,
      "津": 853,
      "活": 854,
      "流": 855,
      "海": 856,
      "清": 857,
      "港": 858,
      "漢": 859,
      "瀬": 860,
      "火": 861,
      "無": 862,
      "熊": 863,
      "版": 864,
      "牙": 865,
      "物": 866,
      "狗": 867,
      "玄": 868,
      "玉": 869,
      "王": 870,
      "理": 871,
      "生": 872,
      "田": 873,
      "町": 874,
      "画": 875,
      "界": 876,
      "番": 877,
      "白": 878,
      "百": 879,
      "的": 880,
      "皇": 881,
      "相": 882,
      "真": 883,
      "眼": 884,
      "知": 885,
      "石": 886,
      "社": 887,
      "神": 888,
      "祭": 889,
      "福": 890,
      "秀": 891,
      "秋": 892,
      "科": 893,
      "空": 894,
      "立": 895,
      "章": 896,
      "竹": 897,
      "第": 898,
      "節": 899,
      "紀": 900,
      "紅": 901,
      "經": 902,
      "線": 903,
      "編": 904,
      "羅": 905,
      "美": 906,
      "義": 907,
      "羽": 908,
      "翼": 909,
      "老": 910,
      "者": 911,
      "聖": 912,
      "胡": 913,
      "能": 914,
      "自": 915,
      "航": 916,
      "船": 917,
      "艦": 918,
      "良": 919,
      "色": 920,
      "花": 921,
      "英": 922,
      "茶": 923,
      "草": 924,
      "華": 925,
      "葉": 926,
      "薇": 927,
      "藤": 928,
      "螺": 929,
      "血": 930,
      "行": 931,
      "術": 932,
      "衛": 933,
      "西": 934,
      "要": 935,
      "見": 936,
      "言": 937,
      "記": 938,
      "詩": 939,
      "語": 940,
      "説": 941,
      "議": 942,
      "谷": 943,
      "豊": 944,
      "賦": 945,
      "赤": 946,
      "走": 947,
      "路": 948,
      "軍": 949,
      "転": 950,
      "輪": 951,
      "逆": 952,
      "通": 953,
      "進": 954,
      "遁": 955,
      "道": 956,
      "達": 957,
      "遠": 958,
      "那": 959,
      "郎": 960,
      "部": 961,
      "都": 962,
      "里": 963,
      "野": 964,
      "金": 965,
      "銀": 966,
      "長": 967,
      "門": 968,
      "間": 969,
      "阿": 970,
      "陈": 971,
      "院": 972,
      "陳": 973,
      "陽": 974,
      "隊": 975,
      "雄": 976,
      "集": 977,
      "雪": 978,
      "雲": 979,
      "雷": 980,
      "青": 981,
      "面": 982,
      "音": 983,
      "頭": 984,
      "風": 985,
      "香": 986,
      "馬": 987,
      "马": 988,
      "高": 989,
      "鬼": 990,
      "魂": 991,
      "魔": 992,
      "鳥": 993,
      "黄": 994,
      "黒": 995,
      "鼓": 996,
      "龍": 997,
      "ﬁ": 998,
      "ﬂ": 999,
      "！": 1000,
      "（": 1001,
      "）": 1002,
      "，": 1003,
      "：": 1004,
      "～": 1005,
      "￥": 1006,
      "##ះ": 1007,
      "##ក": 1008,
      "##រ": 1009,
      "##ា": 1010,
      "##u": 1011,
      "##p": 1012,
      "##a": 1013,
      "##t": 1014,
      "##h": 1015,
      "##e": 1016,
      "##i": 1017,
      "##r": 1018,
      "##v": 1019,
      "##s": 1020,
      "##n": 1021,
      "##o": 1022,
      "##k": 1023,
      "##l": 1024,
      "##c": 1025,
      "##m": 1026,
      "##d": 1027,
      "##g": 1028,
      "##f": 1029,
      "##y": 1030,
      "##b": 1031,
      "##w": 1032,
      "##д": 1033,
      "##в": 1034,
      "##н": 1035,
      "##и": 1036,
      "##к": 1037,
      "##ב": 1038,
      "##ק": 1039,
      "##ɛ": 1040,
      "##ə": 1041,
      "##ʒ": 1042,
      "##ː": 1043,
      "##z": 1044,
      "##j": 1045,
      "##x": 1046,
      "##8": 1047,
      "##7": 1048,
      "##4": 1049,
      "##ا": 1050,
      "##ب": 1051,
      "##ل": 1052,
      "##س": 1053,
      "##ي": 1054,
      "##0": 1055,
      "##5": 1056,
      "##9": 1057,
      "##6": 1058,
      "##2": 1059,
      "##1": 1060,
      "##ł": 1061,
      "##γ": 1062,
      "##ε": 1063,
      "##フ": 1064,
      "##ι": 1065,
      "##κ": 1066,
      "##η": 1067,
      "##q": 1068,
      "##ן": 1069,
      "##æ": 1070,
      "##ん": 1071,
      "##な": 1072,
      "##い": 1073,
      "##っ": 1074,
      "##し": 1075,
      "##に": 1076,
      "##こ": 1077,
      "##ხ": 1078,
      "##ე": 1079,
      "##დ": 1080,
      "##ა": 1081,
      "##რ": 1082,
      "##ი": 1083,
      "##3": 1084,
      "##α": 1085,
      "##ν": 1086,
      "##ˈ": 1087,
      "##ɪ": 1088,
      "##ー": 1089,
      "##ハ": 1090,
      "##マ": 1091,
      "##リ": 1092,
      "##オ": 1093,
      "##ア": 1094,
      "##ト": 1095,
      "##ン": 1096,
      "##ス": 1097,
      "##ρ": 1098,
      "##ο": 1099,
      "##σ": 1100,
      "##ʌ": 1101,
      "##ŋ": 1102,
      "##θ": 1103,
      "##サ": 1104,
      "##ホ": 1105,
      "##ø": 1106,
      "##ς": 1107,
      "##э": 1108,
      "##с": 1109,
      "##п": 1110,
      "##у": 1111,
      "##б": 1112,
      "##л": 1113,
      "##і": 1114,
      "##а": 1115,
      "##е": 1116,
      "##з": 1117,
      "##м": 1118,
      "##ˠ": 1119,
      "##ɟ": 1120,
      "##ی": 1121,
      "##ر": 1122,
      "##ز": 1123,
      "##प": 1124,
      "##ा": 1125,
      "##ण": 1126,
      "##ि": 1127,
      "##न": 1128,
      "##ी": 1129,
      "##य": 1130,
      "##δ": 1131,
      "##ɨ": 1132,
      "##ʃ": 1133,
      "##د": 1134,
      "##ه": 1135,
      "##ت": 1136,
      "##œ": 1137,
      "##μ": 1138,
      "##χ": 1139,
      "##υ": 1140,
      "##τ": 1141,
      "##ो": 1142,
      "##ग": 1143,
      "##ﬁ": 1144,
      "##х": 1145,
      "##р": 1146,
      "##ʰ": 1147,
      "##я": 1148,
      "##ж": 1149,
      "##ы": 1150,
      "##レ": 1151,
      "##ク": 1152,
      "##シ": 1153,
      "##ョ": 1154,
      "##ʻ": 1155,
      "##ɜ": 1156,
      "##ʊ": 1157,
      "##λ": 1158,
      "##π": 1159,
      "##ɡ": 1160,
      "##ɔ": 1161,
      "##ʁ": 1162,
      "##テ": 1163,
      "##ィ": 1164,
      "##т": 1165,
      "##ζ": 1166,
      "##о": 1167,
      "##ศ": 1168,
      "##ว": 1169,
      "##า": 1170,
      "##ล": 1171,
      "##ย": 1172,
      "##ม": 1173,
      "##ห": 1174,
      "##ป": 1175,
      "##ร": 1176,
      "##ส": 1177,
      "##ท": 1178,
      "##த": 1179,
      "##ᵻ": 1180,
      "##ल": 1181,
      "##ω": 1182,
      "##ர": 1183,
      "##வ": 1184,
      "##ʲ": 1185,
      "##ط": 1186,
      "##ق": 1187,
      "##ة": 1188,
      "##ʀ": 1189,
      "##カ": 1190,
      "##タ": 1191,
      "##ケ": 1192,
      "##غ": 1193,
      "##ض": 1194,
      "##ن": 1195,
      "##ف": 1196,
      "##ա": 1197,
      "##կ": 1198,
      "##տ": 1199,
      "##մ": 1200,
      "##ր": 1201,
      "##ը": 1202,
      "##ʾ": 1203,
      "##פ": 1204,
      "##נ": 1205,
      "##י": 1206,
      "##ɑ": 1207,
      "##ß": 1208,
      "##ェ": 1209,
      "##ル": 1210,
      "##ヒ": 1211,
      "##ツ": 1212,
      "##ն": 1213,
      "##պ": 1214,
      "##հ": 1215,
      "##ר": 1216,
      "##ו": 1217,
      "##ש": 1218,
      "##ל": 1219,
      "##ם": 1220,
      "##ð": 1221,
      "##コ": 1222,
      "##ɾ": 1223,
      "##ո": 1224,
      "##ւ": 1225,
      "##գ": 1226,
      "##ァ": 1227,
      "##イ": 1228,
      "##ナ": 1229,
      "##ュ": 1230,
      "##ム": 1231,
      "##ξ": 1232,
      "##ニ": 1233,
      "##ј": 1234,
      "##و": 1235,
      "##م": 1236,
      "##ء": 1237,
      "##る": 1238,
      "##チ": 1239,
      "##ャ": 1240,
      "##श": 1241,
      "##ı": 1242,
      "##ព": 1243,
      "##ង": 1244,
      "##ג": 1245,
      "##ת": 1246,
      "##キ": 1247,
      "##ラ": 1248,
      "##ɐ": 1249,
      "##व": 1250,
      "##ħ": 1251,
      "##ˤ": 1252,
      "##ს": 1253,
      "##უ": 1254,
      "##ռ": 1255,
      "##ջ": 1256,
      "##ե": 1257,
      "##ภ": 1258,
      "##น": 1259,
      "##ロ": 1260,
      "##の": 1261,
      "##ф": 1262,
      "##メ": 1263,
      "##ソ": 1264,
      "##ッ": 1265,
      "##ब": 1266,
      "##र": 1267,
      "##ь": 1268,
      "##ц": 1269,
      "##द": 1270,
      "##ч": 1271,
      "##щ": 1272,
      "##れ": 1273,
      "##た": 1274,
      "##จ": 1275,
      "##ح": 1276,
      "##त": 1277,
      "##क": 1278,
      "##म": 1279,
      "##վ": 1280,
      "##ս": 1281,
      "##ᆼ": 1282,
      "##ᄂ": 1283,
      "##ᅧ": 1284,
      "##ᆷ": 1285,
      "##г": 1286,
      "##ج": 1287,
      "##ほ": 1288,
      "##ƒ": 1289,
      "##ה": 1290,
      "##セ": 1291,
      "##บ": 1292,
      "##พ": 1293,
      "##モ": 1294,
      "##ˌ": 1295,
      "##よ": 1296,
      "##か": 1297,
      "##ᅩ": 1298,
      "##ᄉ": 1299,
      "##ᅡ": 1300,
      "##ᄌ": 1301,
      "##ᅮ": 1302,
      "##ᆯ": 1303,
      "##ᄃ": 1304,
      "##ᄅ": 1305,
      "##ᅵ": 1306,
      "##ᄀ": 1307,
      "##מ": 1308,
      "##ɒ": 1309,
      "##ⵍ": 1310,
      "##ⴰ": 1311,
      "##ⵏ": 1312,
      "##ص": 1313,
      "##ᄒ": 1314,
      "##ᅢ": 1315,
      "##ᆫ": 1316,
      "##ா": 1317,
      "##च": 1318,
      "##ᆨ": 1319,
      "##ذ": 1320,
      "##đ": 1321,
      "##ひ": 1322,
      "##め": 1323,
      "##ћ": 1324,
      "##א": 1325,
      "##ᄋ": 1326,
      "##ʷ": 1327,
      "##を": 1328,
      "##ʔ": 1329,
      "##ヘ": 1330,
      "##ᄇ": 1331,
      "##ט": 1332,
      "##ի": 1333,
      "##ծ": 1334,
      "##خ": 1335,
      "##ল": 1336,
      "##া": 1337,
      "##ক": 1338,
      "##ह": 1339,
      "##ミ": 1340,
      "##ɬ": 1341,
      "##ウ": 1342,
      "##ʋ": 1343,
      "##ʕ": 1344,
      "##す": 1345,
      "##ח": 1346,
      "##ノ": 1347,
      "##て": 1348,
      "##β": 1349,
      "##ك": 1350,
      "##ɫ": 1351,
      "##り": 1352,
      "##エ": 1353,
      "##と": 1354,
      "##ি": 1355,
      "##ম": 1356,
      "##ন": 1357,
      "##ᅥ": 1358,
      "##ᅳ": 1359,
      "##խ": 1360,
      "##դ": 1361,
      "##ு": 1362,
      "##φ": 1363,
      "##ث": 1364,
      "##み": 1365,
      "##え": 1366,
      "##ः": 1367,
      "##स": 1368,
      "##ɲ": 1369,
      "##ד": 1370,
      "##ъ": 1371,
      "##わ": 1372,
      "##ɖ": 1373,
      "##ง": 1374,
      "##เ": 1375,
      "##յ": 1376,
      "##も": 1377,
      "##ნ": 1378,
      "##ვ": 1379,
      "##ช": 1380,
      "##ต": 1381,
      "##き": 1382,
      "##թ": 1383,
      "##ワ": 1384,
      "##ш": 1385,
      "##ネ": 1386,
      "##þ": 1387,
      "##お": 1388,
      "##ע": 1389,
      "##º": 1390,
      "##ி": 1391,
      "##க": 1392,
      "##ع": 1393,
      "##ʂ": 1394,
      "##ɳ": 1395,
      "##ɮ": 1396,
      "##ⴻ": 1397,
      "##อ": 1398,
      "##ォ": 1399,
      "##ք": 1400,
      "##ց": 1401,
      "##כ": 1402,
      "##ک": 1403,
      "##ち": 1404,
      "##ゃ": 1405,
      "##ʼ": 1406,
      "##ʎ": 1407,
      "##ɕ": 1408,
      "##ะ": 1409,
      "##ด": 1410,
      "##ก": 1411,
      "##ษ": 1412,
      "##ள": 1413,
      "##ស": 1414,
      "##ទ": 1415,
      "##េ": 1416,
      "##ត": 1417,
      "##ϕ": 1418,
      "##ம": 1419,
      "##つ": 1420,
      "##ら": 1421,
      "##く": 1422,
      "##さ": 1423,
      "##ပ": 1424,
      "##ြ": 1425,
      "##င": 1426,
      "##շ": 1427,
      "##ղ": 1428,
      "##ю": 1429,
      "##ध": 1430,
      "##ಾ": 1431,
      "##ʏ": 1432,
      "##は": 1433,
      "##う": 1434,
      "##ユ": 1435,
      "##ौ": 1436,
      "##ไ": 1437,
      "##ธ": 1438,
      "##む": 1439,
      "##ʑ": 1440,
      "##ქ": 1441,
      "##ლ": 1442,
      "##լ": 1443,
      "##や": 1444,
      "##ش": 1445,
      "##แ": 1446,
      "##ゆ": 1447,
      "##ى": 1448,
      "##ʿ": 1449,
      "##ˀ": 1450,
      "##է": 1451,
      "##ტ": 1452,
      "##ψ": 1453,
      "##ʈ": 1454,
      "##ふ": 1455,
      "##ट": 1456,
      "##け": 1457,
      "##へ": 1458,
      "##そ": 1459,
      "##ष": 1460,
      "##ま": 1461,
      "##ס": 1462,
      "##ז": 1463,
      "##ہ": 1464,
      "##ရ": 1465,
      "##ᄆ": 1466,
      "##ɣ": 1467,
      "##ɯ": 1468,
      "##զ": 1469,
      "##צ": 1470,
      "##ო": 1471,
      "##ゥ": 1472,
      "##ɦ": 1473,
      "##ᅪ": 1474,
      "##ម": 1475,
      "##भ": 1476,
      "##ヤ": 1477,
      "##ன": 1478,
      "##ɵ": 1479,
      "##ज": 1480,
      "##თ": 1481,
      "##ข": 1482,
      "##ག": 1483,
      "##せ": 1484,
      "##љ": 1485,
      "##ន": 1486,
      "##ប": 1487,
      "##ณ": 1488,
      "##ব": 1489,
      "##բ": 1490,
      "##ヨ": 1491,
      "##ত": 1492,
      "##ろ": 1493,
      "##घ": 1494,
      "##ﬂ": 1495,
      "##ड": 1496,
      "##あ": 1497,
      "##ᄎ": 1498,
      "##მ": 1499,
      "##ǂ": 1500,
      "##ʐ": 1501,
      "##ᄐ": 1502,
      "##န": 1503,
      "##မ": 1504,
      "##ச": 1505,
      "##इ": 1506,
      "##µ": 1507,
      "##he": 1508,
      "the": 1509,
      "##er": 1510,
      "##in": 1511,
      "##on": 1512,
      "##ed": 1513,
      "##nd": 1514,
      "##or": 1515,
      "##at": 1516,
      "##es": 1517,
      "##ar": 1518,
      "##en": 1519,
      "in": 1520,
      "of": 1521,
      "##an": 1522,
      "##al": 1523,
      "##it": 1524,
      "##ing": 1525,
      "##as": 1526,
      "and": 1527,
      "##is": 1528,
      "to": 1529,
      "##ic": 1530,
      "##ou": 1531,
      "##ion": 1532,
      "##re": 1533,
      "##om": 1534,
      "##il": 1535,
      "##el": 1536,
      "th": 1537,
      "##ec": 1538,
      "##ent": 1539,
      "##st": 1540,
      "##am": 1541,
      "##et": 1542,
      "##ro": 1543,
      "on": 1544,
      "##ac": 1545,
      "##ad": 1546,
      "was": 1547,
      "##ur": 1548,
      "st": 1549,
      "##ol": 1550,
      "for": 1551,
      "##le": 1552,
      "##ly": 1553,
      "##ir": 1554,
      "as": 1555,
      "##id": 1556,
      "##ter": 1557,
      "##iv": 1558,
      "##ig": 1559,
      "##ot": 1560,
      "re": 1561,
      "##ut": 1562,
      "##im": 1563,
      "##ow": 1564,
      "##ith": 1565,
      "##ay": 1566,
      "be": 1567,
      "al": 1568,
      "with": 1569,
      "##ation": 1570,
      "that": 1571,
      "wh": 1572,
      "it": 1573,
      "con": 1574,
      "##ers": 1575,
      "##em": 1576,
      "at": 1577,
      "an": 1578,
      "by": 1579,
      "fr": 1580,
      "is": 1581,
      "he": 1582,
      "##us": 1583,
      "##ch": 1584,
      "##ce": 1585,
      "##ver": 1586,
      "##th": 1587,
      "##ul": 1588,
      "##os": 1589,
      "##and": 1590,
      "ch": 1591,
      "##ain": 1592,
      "19": 1593,
      "his": 1594,
      "##her": 1595,
      "##est": 1596,
      "##ag": 1597,
      "##av": 1598,
      "##um": 1599,
      "com": 1600,
      "##ct": 1601,
      "su": 1602,
      "se": 1603,
      "from": 1604,
      "pro": 1605,
      "##od": 1606,
      "##ess": 1607,
      "de": 1608,
      "##ri": 1609,
      "##ap": 1610,
      "20": 1611,
      "##ist": 1612,
      "##ect": 1613,
      "##un": 1614,
      "ne": 1615,
      "##op": 1616,
      "##ere": 1617,
      "sh": 1618,
      "##ill": 1619,
      "##igh": 1620,
      "##ies": 1621,
      "##art": 1622,
      "##ard": 1623,
      "##ber": 1624,
      "##if": 1625,
      "or": 1626,
      "##ld": 1627,
      "ar": 1628,
      "##all": 1629,
      "##oc": 1630,
      "##ak": 1631,
      "ex": 1632,
      "pl": 1633,
      "were": 1634,
      "##ate": 1635,
      "##ich": 1636,
      "##ort": 1637,
      "un": 1638,
      "##ab": 1639,
      "pr": 1640,
      "##pp": 1641,
      "##ant": 1642,
      "le": 1643,
      "sp": 1644,
      "##ud": 1645,
      "##gh": 1646,
      "##ong": 1647,
      "tr": 1648,
      "##se": 1649,
      "##ated": 1650,
      "##ity": 1651,
      "##ive": 1652,
      "##ie": 1653,
      "en": 1654,
      "##ame": 1655,
      "had": 1656,
      "##ore": 1657,
      "##ack": 1658,
      "##ip": 1659,
      "##our": 1660,
      "##ast": 1661,
      "##ear": 1662,
      "which": 1663,
      "##ge": 1664,
      "##ov": 1665,
      "##ough": 1666,
      "are": 1667,
      "not": 1668,
      "##ian": 1669,
      "##ment": 1670,
      "af": 1671,
      "##ell": 1672,
      "##ial": 1673,
      "##ound": 1674,
      "##ost": 1675,
      "##pt": 1676,
      "rec": 1677,
      "##ia": 1678,
      "##ight": 1679,
      "cl": 1680,
      "##qu": 1681,
      "##out": 1682,
      "##ust": 1683,
      "wor": 1684,
      "##ary": 1685,
      "whe": 1686,
      "##ine": 1687,
      "br": 1688,
      "##oun": 1689,
      "ad": 1690,
      "##cc": 1691,
      "##ical": 1692,
      "##ave": 1693,
      "sc": 1694,
      "comp": 1695,
      "fir": 1696,
      "her": 1697,
      "but": 1698,
      "##ord": 1699,
      "this": 1700,
      "inc": 1701,
      "##ther": 1702,
      "200": 1703,
      "cont": 1704,
      "##ould": 1705,
      "tw": 1706,
      "##ous": 1707,
      "ab": 1708,
      "##ish": 1709,
      "after": 1710,
      "int": 1711,
      "first": 1712,
      "gr": 1713,
      "##ions": 1714,
      "##so": 1715,
      "res": 1716,
      "its": 1717,
      "new": 1718,
      "##ure": 1719,
      "their": 1720,
      "am": 1721,
      "all": 1722,
      "man": 1723,
      "##og": 1724,
      "one": 1725,
      "##ue": 1726,
      "##per": 1727,
      "per": 1728,
      "##ass": 1729,
      "##ign": 1730,
      "also": 1731,
      "##ome": 1732,
      "mar": 1733,
      "##ok": 1734,
      "##ub": 1735,
      "us": 1736,
      "rel": 1737,
      "she": 1738,
      "##oll": 1739,
      "##ater": 1740,
      "tim": 1741,
      "##00": 1742,
      "##age": 1743,
      "##ide": 1744,
      "##ond": 1745,
      "they": 1746,
      "##orm": 1747,
      "ser": 1748,
      "##ire": 1749,
      "##hed": 1750,
      "two": 1751,
      "##ru": 1752,
      "part": 1753,
      "ag": 1754,
      "##ry": 1755,
      "fe": 1756,
      "comm": 1757,
      "des": 1758,
      "##rit": 1759,
      "##ans": 1760,
      "have": 1761,
      "##du": 1762,
      "bec": 1763,
      "##ally": 1764,
      "##ff": 1765,
      "##pl": 1766,
      "dis": 1767,
      "##ence": 1768,
      "who": 1769,
      "app": 1770,
      "##ree": 1771,
      "go": 1772,
      "18": 1773,
      "##ile": 1774,
      "##ance": 1775,
      "##ra": 1776,
      "we": 1777,
      "##ition": 1778,
      "##end": 1779,
      "year": 1780,
      "##own": 1781,
      "##iz": 1782,
      "off": 1783,
      "has": 1784,
      "play": 1785,
      "##act": 1786,
      "##uring": 1787,
      "been": 1788,
      "ro": 1789,
      "##ely": 1790,
      "other": 1791,
      "over": 1792,
      "201": 1793,
      "im": 1794,
      "car": 1795,
      "##ult": 1796,
      "##lud": 1797,
      "##ice": 1798,
      "##ory": 1799,
      "out": 1800,
      "##ations": 1801,
      "co": 1802,
      "##ember": 1803,
      "up": 1804,
      "##ach": 1805,
      "inter": 1806,
      "att": 1807,
      "ev": 1808,
      "##ace": 1809,
      "##ke": 1810,
      "dec": 1811,
      "fin": 1812,
      "##wn": 1813,
      "when": 1814,
      "##land": 1815,
      "pre": 1816,
      "bo": 1817,
      "##ade": 1818,
      "##ib": 1819,
      "##pr": 1820,
      "time": 1821,
      "##ail": 1822,
      "can": 1823,
      "during": 1824,
      "##ens": 1825,
      "##ount": 1826,
      "##urn": 1827,
      "fl": 1828,
      "includ": 1829,
      "ind": 1830,
      "##ced": 1831,
      "te": 1832,
      "##ric": 1833,
      "would": 1834,
      "sec": 1835,
      "##eas": 1836,
      "##ks": 1837,
      "fil": 1838,
      "##ang": 1839,
      "##man": 1840,
      "##ward": 1841,
      "##one": 1842,
      "into": 1843,
      "##we": 1844,
      "him": 1845,
      "act": 1846,
      "bl": 1847,
      "##ite": 1848,
      "##int": 1849,
      "ear": 1850,
      "##ates": 1851,
      "war": 1852,
      "jo": 1853,
      "##ied": 1854,
      "##able": 1855,
      "bet": 1856,
      "more": 1857,
      "##nder": 1858,
      "char": 1859,
      "##ose": 1860,
      "##ited": 1861,
      "##amp": 1862,
      "cent": 1863,
      "form": 1864,
      "film": 1865,
      "par": 1866,
      "##way": 1867,
      "##ents": 1868,
      "me": 1869,
      "acc": 1870,
      "##les": 1871,
      "##ces": 1872,
      "cons": 1873,
      "##ors": 1874,
      "el": 1875,
      "##old": 1876,
      "##aw": 1877,
      "##ason": 1878,
      "##form": 1879,
      "##ings": 1880,
      "while": 1881,
      "mus": 1882,
      "##vel": 1883,
      "##te": 1884,
      "most": 1885,
      "##ild": 1886,
      "game": 1887,
      "##ft": 1888,
      "##att": 1889,
      "there": 1890,
      "thr": 1891,
      "##port": 1892,
      "kn": 1893,
      "rem": 1894,
      "nor": 1895,
      "##ind": 1896,
      "##ict": 1897,
      "gen": 1898,
      "##gr": 1899,
      "##ick": 1900,
      "ass": 1901,
      "##fer": 1902,
      "##ious": 1903,
      "##ake": 1904,
      "how": 1905,
      "##aus": 1906,
      "qu": 1907,
      "em": 1908,
      "##reat": 1909,
      "##iss": 1910,
      "bu": 1911,
      "no": 1912,
      "later": 1913,
      "song": 1914,
      "produ": 1915,
      "again": 1916,
      "only": 1917,
      "reg": 1918,
      "##gan": 1919,
      "so": 1920,
      "##rib": 1921,
      "##ved": 1922,
      "under": 1923,
      "work": 1924,
      "##ction": 1925,
      "##ood": 1926,
      "##rop": 1927,
      "sy": 1928,
      "may": 1929,
      "them": 1930,
      "##ey": 1931,
      "ret": 1932,
      "than": 1933,
      "some": 1934,
      "po": 1935,
      "##als": 1936,
      "three": 1937,
      "pe": 1938,
      "col": 1939,
      "about": 1940,
      "##ubl": 1941,
      "##eld": 1942,
      "199": 1943,
      "##ix": 1944,
      "##ween": 1945,
      "##ath": 1946,
      "##ons": 1947,
      "between": 1948,
      "##ollow": 1949,
      "##oth": 1950,
      "day": 1951,
      "air": 1952,
      "##ered": 1953,
      "high": 1954,
      "bro": 1955,
      "mon": 1956,
      "rev": 1957,
      "##hip": 1958,
      "through": 1959,
      "record": 1960,
      "follow": 1961,
      "eng": 1962,
      "##ock": 1963,
      "ma": 1964,
      "##ational": 1965,
      "bas": 1966,
      "second": 1967,
      "##fore": 1968,
      "end": 1969,
      "##outh": 1970,
      "li": 1971,
      "ph": 1972,
      "releas": 1973,
      "ac": 1974,
      "num": 1975,
      "sub": 1976,
      "##ters": 1977,
      "min": 1978,
      "pres": 1979,
      "##eric": 1980,
      "##hn": 1981,
      "##ph": 1982,
      "dr": 1983,
      "##ug": 1984,
      "##orn": 1985,
      "sa": 1986,
      "##iew": 1987,
      "pol": 1988,
      "alb": 1989,
      "season": 1990,
      "def": 1991,
      "four": 1992,
      "ep": 1993,
      "pos": 1994,
      "americ": 1995,
      "world": 1996,
      "do": 1997,
      "north": 1998,
      "where": 1999,
      "cap": 2000,
      "before": 2001,
      "team": 2002,
      "mov": 2003,
      "##ral": 2004,
      "##ular": 2005,
      "spec": 2006,
      "##ating": 2007,
      "##ames": 2008,
      "writ": 2009,
      "arm": 2010,
      "lar": 2011,
      "sm": 2012,
      "made": 2013,
      "sch": 2014,
      "##ision": 2015,
      "gu": 2016,
      "will": 2017,
      "##ived": 2018,
      "##hes": 2019,
      "such": 2020,
      "sur": 2021,
      "##son": 2022,
      "000": 2023,
      "sing": 2024,
      "##ton": 2025,
      "album": 2026,
      "publ": 2027,
      "##ep": 2028,
      "met": 2029,
      "##ished": 2030,
      "sever": 2031,
      "##ever": 2032,
      "years": 2033,
      "##ained": 2034,
      "##io": 2035,
      "##itt": 2036,
      "##ode": 2037,
      "##ics": 2038,
      "##ros": 2039,
      "supp": 2040,
      "loc": 2041,
      "##red": 2042,
      "10": 2043,
      "call": 2044,
      "count": 2045,
      "str": 2046,
      "south": 2047,
      "back": 2048,
      "show": 2049,
      "##let": 2050,
      "add": 2051,
      "inv": 2052,
      "gener": 2053,
      "both": 2054,
      "##ning": 2055,
      "##ected": 2056,
      "##ual": 2057,
      "##tern": 2058,
      "then": 2059,
      "art": 2060,
      "##ily": 2061,
      "however": 2062,
      "##ery": 2063,
      "epis": 2064,
      "used": 2065,
      "mill": 2066,
      "batt": 2067,
      "rece": 2068,
      "##ific": 2069,
      "being": 2070,
      "these": 2071,
      "well": 2072,
      "##oup": 2073,
      "##ury": 2074,
      "##ection": 2075,
      "set": 2076,
      "stud": 2077,
      "##ve": 2078,
      "series": 2079,
      "against": 2080,
      "ed": 2081,
      "##air": 2082,
      "##ank": 2083,
      "charac": 2084,
      "bel": 2085,
      "##ale": 2086,
      "inst": 2087,
      "##velop": 2088,
      "found": 2089,
      "number": 2090,
      "##ife": 2091,
      "##led": 2092,
      "17": 2093,
      "lead": 2094,
      "many": 2095,
      "music": 2096,
      "##other": 2097,
      "sim": 2098,
      "##ement": 2099,
      "mat": 2100,
      "perform": 2101,
      "##ten": 2102,
      "main": 2103,
      "long": 2104,
      "##ather": 2105,
      "op": 2106,
      "##ert": 2107,
      "city": 2108,
      "pop": 2109,
      "##ane": 2110,
      "##az": 2111,
      "##ool": 2112,
      "ter": 2113,
      "##ause": 2114,
      "##ince": 2115,
      "##oy": 2116,
      "develop": 2117,
      "##ron": 2118,
      "##fl": 2119,
      "became": 2120,
      "united": 2121,
      "dire": 2122,
      "##au": 2123,
      "hist": 2124,
      "several": 2125,
      "including": 2126,
      "##igin": 2127,
      "sl": 2128,
      "cre": 2129,
      "state": 2130,
      "brit": 2131,
      "mil": 2132,
      "early": 2133,
      "##ise": 2134,
      "div": 2135,
      "##ower": 2136,
      "##ier": 2137,
      "origin": 2138,
      "##vern": 2139,
      "##ised": 2140,
      "ob": 2141,
      "15": 2142,
      "12": 2143,
      "198": 2144,
      "trans": 2145,
      "did": 2146,
      "##anc": 2147,
      "##its": 2148,
      "appear": 2149,
      "##ork": 2150,
      "##ures": 2151,
      "dist": 2152,
      "##ines": 2153,
      "nov": 2154,
      "##iet": 2155,
      "194": 2156,
      "ext": 2157,
      "##uc": 2158,
      "ship": 2159,
      "contin": 2160,
      "govern": 2161,
      "##olog": 2162,
      "pers": 2163,
      "##ities": 2164,
      "conc": 2165,
      "win": 2166,
      "##are": 2167,
      "prov": 2168,
      "##ole": 2169,
      "episode": 2170,
      "##til": 2171,
      "states": 2172,
      "##ross": 2173,
      "##elf": 2174,
      "est": 2175,
      "crit": 2176,
      "said": 2177,
      "john": 2178,
      "##ird": 2179,
      "ann": 2180,
      "##ful": 2181,
      "following": 2182,
      "const": 2183,
      "##ley": 2184,
      "design": 2185,
      "group": 2186,
      "##ield": 2187,
      "cr": 2188,
      "exp": 2189,
      "could": 2190,
      "dif": 2191,
      "med": 2192,
      "##ative": 2193,
      "oper": 2194,
      "16": 2195,
      "return": 2196,
      "##ouse": 2197,
      "run": 2198,
      "american": 2199,
      "##ought": 2200,
      "desc": 2201,
      "##sp": 2202,
      "##ann": 2203,
      "bar": 2204,
      "alth": 2205,
      "known": 2206,
      "##der": 2207,
      "dep": 2208,
      "although": 2209,
      "##eng": 2210,
      "near": 2211,
      "direct": 2212,
      "aust": 2213,
      "any": 2214,
      "ger": 2215,
      "west": 2216,
      "##ivers": 2217,
      "sign": 2218,
      "serv": 2219,
      "har": 2220,
      "197": 2221,
      "##emb": 2222,
      "mod": 2223,
      "jun": 2224,
      "king": 2225,
      "pass": 2226,
      "down": 2227,
      "##ase": 2228,
      "11": 2229,
      "196": 2230,
      "##ually": 2231,
      "##ah": 2232,
      "##ll": 2233,
      "land": 2234,
      "##uch": 2235,
      "##ident": 2236,
      "fam": 2237,
      "disc": 2238,
      "##iver": 2239,
      "##iam": 2240,
      "##ued": 2241,
      "began": 2242,
      "red": 2243,
      "like": 2244,
      "gre": 2245,
      "offic": 2246,
      "##ined": 2247,
      "eff": 2248,
      "until": 2249,
      "lo": 2250,
      "ste": 2251,
      "feat": 2252,
      "##row": 2253,
      "##ople": 2254,
      "##ism": 2255,
      "##0s": 2256,
      "##ject": 2257,
      "##ange": 2258,
      "##ty": 2259,
      "##aking": 2260,
      "##ern": 2261,
      "school": 2262,
      "along": 2263,
      "because": 2264,
      "own": 2265,
      "##ided": 2266,
      "point": 2267,
      "released": 2268,
      "rep": 2269,
      "open": 2270,
      "port": 2271,
      "##ccess": 2272,
      "resp": 2273,
      "##ele": 2274,
      "##enn": 2275,
      "##ized": 2276,
      "##ins": 2277,
      "called": 2278,
      "imp": 2279,
      "national": 2280,
      "prev": 2281,
      "##ts": 2282,
      "star": 2283,
      "maj": 2284,
      "##els": 2285,
      "##ists": 2286,
      "people": 2287,
      "##ured": 2288,
      "##up": 2289,
      "##stem": 2290,
      "wee": 2291,
      "##ys": 2292,
      "##ially": 2293,
      "##ution": 2294,
      "class": 2295,
      "adv": 2296,
      "million": 2297,
      "##ull": 2298,
      "##osed": 2299,
      "just": 2300,
      "##ium": 2301,
      "cour": 2302,
      "system": 2303,
      "id": 2304,
      "british": 2305,
      "ever": 2306,
      "since": 2307,
      "13": 2308,
      "head": 2309,
      "six": 2310,
      "aut": 2311,
      "##ession": 2312,
      "best": 2313,
      "around": 2314,
      "aug": 2315,
      "cor": 2316,
      "major": 2317,
      "award": 2318,
      "ju": 2319,
      "life": 2320,
      "var": 2321,
      "la": 2322,
      "##cept": 2323,
      "if": 2324,
      "each": 2325,
      "success": 2326,
      "##any": 2327,
      "##ains": 2328,
      "attack": 2329,
      "sept": 2330,
      "##ets": 2331,
      "av": 2332,
      "bre": 2333,
      "##xt": 2334,
      "##gest": 2335,
      "##ene": 2336,
      "##ently": 2337,
      "##ments": 2338,
      "coll": 2339,
      "character": 2340,
      "##ark": 2341,
      "##oot": 2342,
      "##rap": 2343,
      "use": 2344,
      "arr": 2345,
      "september": 2346,
      "describ": 2347,
      "august": 2348,
      "start": 2349,
      "##amed": 2350,
      "##ont": 2351,
      "same": 2352,
      "##ible": 2353,
      "road": 2354,
      "tri": 2355,
      "ge": 2356,
      "east": 2357,
      "##aced": 2358,
      "occ": 2359,
      "final": 2360,
      "support": 2361,
      "result": 2362,
      "oct": 2363,
      "dem": 2364,
      "another": 2365,
      "hel": 2366,
      "five": 2367,
      "public": 2368,
      "14": 2369,
      "##aining": 2370,
      "##yp": 2371,
      "sw": 2372,
      "##ik": 2373,
      "prom": 2374,
      "km": 2375,
      "##ired": 2376,
      "great": 2377,
      "build": 2378,
      "##ended": 2379,
      "old": 2380,
      "my": 2381,
      "camp": 2382,
      "austral": 2383,
      "you": 2384,
      "##aving": 2385,
      "195": 2386,
      "det": 2387,
      "gl": 2388,
      "##cl": 2389,
      "##ues": 2390,
      "took": 2391,
      "sk": 2392,
      "band": 2393,
      "german": 2394,
      "##ruct": 2395,
      "ra": 2396,
      "##ob": 2397,
      "line": 2398,
      "book": 2399,
      "area": 2400,
      "mid": 2401,
      "house": 2402,
      "small": 2403,
      "complet": 2404,
      "##ted": 2405,
      "##ner": 2406,
      "report": 2407,
      "193": 2408,
      "consid": 2409,
      "##ove": 2410,
      "century": 2411,
      "##ober": 2412,
      "##und": 2413,
      "turn": 2414,
      "received": 2415,
      "##raft": 2416,
      "##get": 2417,
      "october": 2418,
      "contro": 2419,
      "##uss": 2420,
      "chr": 2421,
      "##ants": 2422,
      "stre": 2423,
      "##hern": 2424,
      "rout": 2425,
      "univers": 2426,
      "##ives": 2427,
      "##ically": 2428,
      "##hing": 2429,
      "191": 2430,
      "##ble": 2431,
      "what": 2432,
      "games": 2433,
      "partic": 2434,
      "due": 2435,
      "short": 2436,
      "##ison": 2437,
      "last": 2438,
      "government": 2439,
      "hal": 2440,
      "##ility": 2441,
      "vers": 2442,
      "##ina": 2443,
      "leg": 2444,
      "rest": 2445,
      "march": 2446,
      "##ately": 2447,
      "ent": 2448,
      "ke": 2449,
      "command": 2450,
      "##gin": 2451,
      "person": 2452,
      "##ored": 2453,
      "##ians": 2454,
      "##oss": 2455,
      "way": 2456,
      "##ink": 2457,
      "june": 2458,
      "jan": 2459,
      "mag": 2460,
      "home": 2461,
      "prot": 2462,
      "mark": 2463,
      "del": 2464,
      "third": 2465,
      "general": 2466,
      "##inc": 2467,
      "single": 2468,
      "conv": 2469,
      "squ": 2470,
      "##ting": 2471,
      "##ission": 2472,
      "july": 2473,
      "child": 2474,
      "tit": 2475,
      "capt": 2476,
      "##iving": 2477,
      "##sc": 2478,
      "men": 2479,
      "november": 2480,
      "##urch": 2481,
      "track": 2482,
      "##omet": 2483,
      "death": 2484,
      "apr": 2485,
      "fur": 2486,
      "care": 2487,
      "review": 2488,
      "event": 2489,
      "much": 2490,
      "island": 2491,
      "##ute": 2492,
      "york": 2493,
      "##app": 2494,
      "april": 2495,
      "top": 2496,
      "differ": 2497,
      "dam": 2498,
      "##enc": 2499,
      "large": 2500,
      "##uary": 2501,
      "cal": 2502,
      "accord": 2503,
      "power": 2504,
      "##lish": 2505,
      "even": 2506,
      "left": 2507,
      "soc": 2508,
      "town": 2509,
      "##res": 2510,
      "che": 2511,
      "eu": 2512,
      "##ash": 2513,
      "##ural": 2514,
      "cast": 2515,
      "gun": 2516,
      "##ger": 2517,
      "vide": 2518,
      "intern": 2519,
      "allow": 2520,
      "##ively": 2521,
      "30": 2522,
      "month": 2523,
      "##aim": 2524,
      "pat": 2525,
      "##idge": 2526,
      "kill": 2527,
      "##ilt": 2528,
      "story": 2529,
      "progr": 2530,
      "appro": 2531,
      "vis": 2532,
      "based": 2533,
      "##bo": 2534,
      "family": 2535,
      "##ague": 2536,
      "place": 2537,
      "cur": 2538,
      "now": 2539,
      "##ms": 2540,
      "vict": 2541,
      "##ales": 2542,
      "incre": 2543,
      "expl": 2544,
      "park": 2545,
      "ant": 2546,
      "black": 2547,
      "##bert": 2548,
      "##ified": 2549,
      "right": 2550,
      "spe": 2551,
      "##over": 2552,
      "law": 2553,
      "company": 2554,
      "army": 2555,
      "ele": 2556,
      "##avy": 2557,
      "enter": 2558,
      "##empt": 2559,
      "conf": 2560,
      "december": 2561,
      "25": 2562,
      "history": 2563,
      "club": 2564,
      "played": 2565,
      "addition": 2566,
      "storm": 2567,
      "according": 2568,
      "post": 2569,
      "river": 2570,
      "included": 2571,
      "##by": 2572,
      "name": 2573,
      "##ats": 2574,
      "led": 2575,
      "january": 2576,
      "water": 2577,
      "##rote": 2578,
      "battle": 2579,
      "##ench": 2580,
      "192": 2581,
      "##ention": 2582,
      "##ient": 2583,
      "##ograp": 2584,
      "hand": 2585,
      "ang": 2586,
      "##aged": 2587,
      "##ared": 2588,
      "wind": 2589,
      "##ball": 2590,
      "##ime": 2591,
      "##ling": 2592,
      "##apan": 2593,
      "##side": 2594,
      "wom": 2595,
      "ii": 2596,
      "wrote": 2597,
      "won": 2598,
      "hum": 2599,
      "##hen": 2600,
      "##ven": 2601,
      "##ony": 2602,
      "##eal": 2603,
      "##erg": 2604,
      "japan": 2605,
      "times": 2606,
      "##min": 2607,
      "##ages": 2608,
      "##ott": 2609,
      "organ": 2610,
      "opp": 2611,
      "val": 2612,
      "##ience": 2613,
      "requ": 2614,
      "previous": 2615,
      "far": 2616,
      "within": 2617,
      "##ract": 2618,
      "deb": 2619,
      "##ody": 2620,
      "rad": 2621,
      "make": 2622,
      "described": 2623,
      "init": 2624,
      "##ital": 2625,
      "##med": 2626,
      "those": 2627,
      "bill": 2628,
      "still": 2629,
      "champ": 2630,
      "video": 2631,
      "##ides": 2632,
      "##erv": 2633,
      "next": 2634,
      "##hest": 2635,
      "memb": 2636,
      "late": 2637,
      "stand": 2638,
      "##omin": 2639,
      "named": 2640,
      "##ption": 2641,
      "belie": 2642,
      "bus": 2643,
      "##hy": 2644,
      "week": 2645,
      "original": 2646,
      "among": 2647,
      "release": 2648,
      "##na": 2649,
      "further": 2650,
      "attempt": 2651,
      "repl": 2652,
      "##aff": 2653,
      "##ister": 2654,
      "##por": 2655,
      "list": 2656,
      "##iven": 2657,
      "league": 2658,
      "##ilar": 2659,
      "force": 2660,
      "very": 2661,
      "effect": 2662,
      "dest": 2663,
      "poss": 2664,
      "foot": 2665,
      "view": 2666,
      "iss": 2667,
      "route": 2668,
      "##iod": 2669,
      "##bru": 2670,
      "100": 2671,
      "##ior": 2672,
      "real": 2673,
      "##itions": 2674,
      "##mer": 2675,
      "commun": 2676,
      "production": 2677,
      "##ps": 2678,
      "exper": 2679,
      "species": 2680,
      "##ret": 2681,
      "members": 2682,
      "##ached": 2683,
      "sound": 2684,
      "cy": 2685,
      "##br": 2686,
      "inf": 2687,
      "polit": 2688,
      "##ival": 2689,
      "infl": 2690,
      "europ": 2691,
      "milit": 2692,
      "former": 2693,
      "ref": 2694,
      "christ": 2695,
      "##ren": 2696,
      "tour": 2697,
      "febru": 2698,
      "february": 2699,
      "tak": 2700,
      "similar": 2701,
      "sol": 2702,
      "elect": 2703,
      "white": 2704,
      "##ances": 2705,
      "nort": 2706,
      "##ne": 2707,
      "sold": 2708,
      "period": 2709,
      "division": 2710,
      "though": 2711,
      "repr": 2712,
      "days": 2713,
      "built": 2714,
      "match": 2715,
      "##ences": 2716,
      "tem": 2717,
      "roy": 2718,
      "nat": 2719,
      "super": 2720,
      "tele": 2721,
      "control": 2722,
      "side": 2723,
      "##hor": 2724,
      "trop": 2725,
      "prop": 2726,
      "held": 2727,
      "sout": 2728,
      "europe": 2729,
      "##ck": 2730,
      "plan": 2731,
      "youn": 2732,
      "university": 2733,
      "rock": 2734,
      "##ars": 2735,
      "light": 2736,
      "french": 2737,
      "##ented": 2738,
      "good": 2739,
      "pa": 2740,
      "##ney": 2741,
      "##ness": 2742,
      "cle": 2743,
      "say": 2744,
      "service": 2745,
      "typ": 2746,
      "president": 2747,
      "##ched": 2748,
      "fle": 2749,
      "role": 2750,
      "##augh": 2751,
      "local": 2752,
      "desp": 2753,
      "estab": 2754,
      "help": 2755,
      "##wards": 2756,
      "2010": 2757,
      "fre": 2758,
      "equ": 2759,
      "21": 2760,
      "order": 2761,
      "eas": 2762,
      "came": 2763,
      "coun": 2764,
      "tot": 2765,
      "every": 2766,
      "caus": 2767,
      "##ech": 2768,
      "cross": 2769,
      "sen": 2770,
      "beh": 2771,
      "having": 2772,
      "never": 2773,
      "##oci": 2774,
      "william": 2775,
      "##ipp": 2776,
      "##sh": 2777,
      "sum": 2778,
      "##ler": 2779,
      "few": 2780,
      "##ford": 2781,
      "sug": 2782,
      "mor": 2783,
      "##ulation": 2784,
      "##uted": 2785,
      "##line": 2786,
      "##ax": 2787,
      "mount": 2788,
      "test": 2789,
      "associ": 2790,
      "player": 2791,
      "chart": 2792,
      "prof": 2793,
      "2008": 2794,
      "see": 2795,
      "often": 2796,
      "common": 2797,
      "24": 2798,
      "stat": 2799,
      "pet": 2800,
      "take": 2801,
      "##ards": 2802,
      "##ices": 2803,
      "half": 2804,
      "hur": 2805,
      "2009": 2806,
      "career": 2807,
      "geor": 2808,
      "continued": 2809,
      "low": 2810,
      "##par": 2811,
      "##ese": 2812,
      "ten": 2813,
      "sty": 2814,
      "pri": 2815,
      "claim": 2816,
      "histor": 2817,
      "##ator": 2818,
      "2011": 2819,
      "level": 2820,
      "sent": 2821,
      "press": 2822,
      "fire": 2823,
      "mich": 2824,
      "##ruction": 2825,
      "different": 2826,
      "##omb": 2827,
      "without": 2828,
      "fun": 2829,
      "##ying": 2830,
      "##estern": 2831,
      "despite": 2832,
      "##atic": 2833,
      "##ots": 2834,
      "je": 2835,
      "cover": 2836,
      "england": 2837,
      "wat": 2838,
      "rom": 2839,
      "mer": 2840,
      "##ology": 2841,
      "less": 2842,
      "22": 2843,
      "court": 2844,
      "comb": 2845,
      "considered": 2846,
      "##read": 2847,
      "party": 2848,
      "##ops": 2849,
      "##ried": 2850,
      "dav": 2851,
      "development": 2852,
      "fact": 2853,
      "##me": 2854,
      "field": 2855,
      "##ves": 2856,
      "church": 2857,
      "##aster": 2858,
      "arch": 2859,
      "2007": 2860,
      "##iend": 2861,
      "don": 2862,
      "repres": 2863,
      "##af": 2864,
      "tre": 2865,
      "increas": 2866,
      "night": 2867,
      "country": 2868,
      "county": 2869,
      "##con": 2870,
      "##hel": 2871,
      "influ": 2872,
      "##ham": 2873,
      "champions": 2874,
      "royal": 2875,
      "songs": 2876,
      "friend": 2877,
      "##ones": 2878,
      "version": 2879,
      "##ittle": 2880,
      "hig": 2881,
      "english": 2882,
      "military": 2883,
      "##ring": 2884,
      "moved": 2885,
      "highway": 2886,
      "colle": 2887,
      "vol": 2888,
      "##lex": 2889,
      "written": 2890,
      "##essed": 2891,
      "position": 2892,
      "trad": 2893,
      "want": 2894,
      "strong": 2895,
      "##rodu": 2896,
      "##vision": 2897,
      "program": 2898,
      "mi": 2899,
      "2012": 2900,
      "lim": 2901,
      "become": 2902,
      "forces": 2903,
      "anim": 2904,
      "ve": 2905,
      "chang": 2906,
      "bur": 2907,
      "##alk": 2908,
      "23": 2909,
      "lost": 2910,
      "##ize": 2911,
      "son": 2912,
      "lond": 2913,
      "international": 2914,
      "building": 2915,
      "little": 2916,
      "miss": 2917,
      "tropical": 2918,
      "given": 2919,
      "london": 2920,
      "total": 2921,
      "##ened": 2922,
      "mo": 2923,
      "invol": 2924,
      "author": 2925,
      "suggest": 2926,
      "##elt": 2927,
      "ord": 2928,
      "##craft": 2929,
      "refer": 2930,
      "vir": 2931,
      "phil": 2932,
      "announ": 2933,
      "vi": 2934,
      "let": 2935,
      "190": 2936,
      "##eder": 2937,
      "pur": 2938,
      "##ged": 2939,
      "##atter": 2940,
      "##ald": 2941,
      "lab": 2942,
      "street": 2943,
      "hour": 2944,
      "read": 2945,
      "project": 2946,
      "import": 2947,
      "sel": 2948,
      "free": 2949,
      "##ai": 2950,
      "##irc": 2951,
      "##ising": 2952,
      "##iety": 2953,
      "get": 2954,
      "canad": 2955,
      "eight": 2956,
      "##que": 2957,
      "aff": 2958,
      "##sequ": 2959,
      "surv": 2960,
      "rail": 2961,
      "performance": 2962,
      "defe": 2963,
      "gold": 2964,
      "ly": 2965,
      "sal": 2966,
      "station": 2967,
      "gave": 2968,
      "earl": 2969,
      "went": 2970,
      "##bs": 2971,
      "find": 2972,
      "cop": 2973,
      "father": 2974,
      "##ae": 2975,
      "##ches": 2976,
      "returned": 2977,
      "somet": 2978,
      "##ailed": 2979,
      "using": 2980,
      "broad": 2981,
      "jack": 2982,
      "need": 2983,
      "published": 2984,
      "coast": 2985,
      "produced": 2986,
      "conn": 2987,
      "western": 2988,
      "arg": 2989,
      "compet": 2990,
      "##oint": 2991,
      "hun": 2992,
      "reported": 2993,
      "##ead": 2994,
      "##xim": 2995,
      "trav": 2996,
      "mass": 2997,
      "popular": 2998,
      "##ably": 2999,
      "particular": 3000,
      "##roy": 3001,
      "recorded": 3002,
      "children": 3003,
      "television": 3004,
      "cult": 3005,
      "2006": 3006,
      "##self": 3007,
      "ins": 3008,
      "##ories": 3009,
      "stated": 3010,
      "aircraft": 3011,
      "special": 3012,
      "##aign": 3013,
      "ball": 3014,
      "hol": 3015,
      "##ama": 3016,
      "ships": 3017,
      "interest": 3018,
      "dev": 3019,
      "##ency": 3020,
      "ground": 3021,
      "campaign": 3022,
      "circ": 3023,
      "##echn": 3024,
      "should": 3025,
      "front": 3026,
      "include": 3027,
      "live": 3028,
      "making": 3029,
      "hit": 3030,
      "##iter": 3031,
      "critic": 3032,
      "dou": 3033,
      "love": 3034,
      "27": 3035,
      "hom": 3036,
      "age": 3037,
      "##uck": 3038,
      "##ief": 3039,
      "women": 3040,
      "28": 3041,
      "hurric": 3042,
      "central": 3043,
      "##ef": 3044,
      "##day": 3045,
      "vo": 3046,
      "throughout": 3047,
      "##yl": 3048,
      "50": 3049,
      "prim": 3050,
      "##used": 3051,
      "upon": 3052,
      "##iment": 3053,
      "region": 3054,
      "cas": 3055,
      "once": 3056,
      "young": 3057,
      "##iness": 3058,
      "##ploy": 3059,
      "##ength": 3060,
      "##osp": 3061,
      "suff": 3062,
      "obs": 3063,
      "himself": 3064,
      "official": 3065,
      "australia": 3066,
      "2013": 3067,
      "##co": 3068,
      "tro": 3069,
      "championship": 3070,
      "techn": 3071,
      "depart": 3072,
      "wall": 3073,
      "mot": 3074,
      "aud": 3075,
      "##cess": 3076,
      "ap": 3077,
      "rich": 3078,
      "characters": 3079,
      "vill": 3080,
      "##ned": 3081,
      "non": 3082,
      "##ensive": 3083,
      "fav": 3084,
      "26": 3085,
      "sea": 3086,
      "##play": 3087,
      "present": 3088,
      "du": 3089,
      "##rew": 3090,
      "mad": 3091,
      "##alth": 3092,
      "40": 3093,
      "tur": 3094,
      "players": 3095,
      "squad": 3096,
      "relations": 3097,
      "sit": 3098,
      "##itive": 3099,
      "##vers": 3100,
      "ft": 3101,
      "##ither": 3102,
      "fall": 3103,
      "instead": 3104,
      "##raw": 3105,
      "southern": 3106,
      "title": 3107,
      "base": 3108,
      "##akes": 3109,
      "produc": 3110,
      "james": 3111,
      "writing": 3112,
      "seven": 3113,
      "away": 3114,
      "hor": 3115,
      "189": 3116,
      "cost": 3117,
      "fac": 3118,
      "begin": 3119,
      "##acy": 3120,
      "across": 3121,
      "fem": 3122,
      "introdu": 3123,
      "center": 3124,
      "cam": 3125,
      "hall": 3126,
      "died": 3127,
      "remained": 3128,
      "months": 3129,
      "##ense": 3130,
      "##ges": 3131,
      "fort": 3132,
      "ir": 3133,
      "signific": 3134,
      "developed": 3135,
      "enc": 3136,
      "grand": 3137,
      "promot": 3138,
      "full": 3139,
      "cond": 3140,
      "political": 3141,
      "look": 3142,
      "net": 3143,
      "various": 3144,
      "occur": 3145,
      "manag": 3146,
      "modern": 3147,
      "##ument": 3148,
      "##lo": 3149,
      "fif": 3150,
      "hot": 3151,
      "##ple": 3152,
      "##ape": 3153,
      "cat": 3154,
      "pal": 3155,
      "hurricane": 3156,
      "wood": 3157,
      "##utes": 3158,
      "hill": 3159,
      "put": 3160,
      "too": 3161,
      "hon": 3162,
      "##fic": 3163,
      "##itted": 3164,
      "ham": 3165,
      "aver": 3166,
      "ill": 3167,
      "pra": 3168,
      "race": 3169,
      "fight": 3170,
      "##field": 3171,
      "decl": 3172,
      "##ration": 3173,
      "office": 3174,
      "hy": 3175,
      "##ael": 3176,
      "big": 3177,
      "##ille": 3178,
      "##isted": 3179,
      "##ries": 3180,
      "bow": 3181,
      "hard": 3182,
      "works": 3183,
      "america": 3184,
      "sil": 3185,
      "felt": 3186,
      "areas": 3187,
      "indust": 3188,
      "noted": 3189,
      "wr": 3190,
      "mal": 3191,
      "##erc": 3192,
      "eventually": 3193,
      "russ": 3194,
      "style": 3195,
      "born": 3196,
      "announced": 3197,
      "college": 3198,
      "created": 3199,
      "miles": 3200,
      "thought": 3201,
      "reached": 3202,
      "brother": 3203,
      "##ett": 3204,
      "hop": 3205,
      "##ering": 3206,
      "destroy": 3207,
      "##dom": 3208,
      "##ana": 3209,
      "construction": 3210,
      "japanese": 3211,
      "stri": 3212,
      "engine": 3213,
      "bri": 3214,
      "sun": 3215,
      "hold": 3216,
      "successful": 3217,
      "northern": 3218,
      "2005": 3219,
      "##most": 3220,
      "29": 3221,
      "cro": 3222,
      "san": 3223,
      "body": 3224,
      "cut": 3225,
      "pain": 3226,
      "seen": 3227,
      "mc": 3228,
      "heavy": 3229,
      "struct": 3230,
      "esc": 3231,
      "agre": 3232,
      "followed": 3233,
      "adm": 3234,
      "range": 3235,
      "sym": 3236,
      "toget": 3237,
      "mem": 3238,
      "##ements": 3239,
      "together": 3240,
      "meet": 3241,
      "performed": 3242,
      "##ress": 3243,
      "civ": 3244,
      "##iting": 3245,
      "##ization": 3246,
      "brown": 3247,
      "served": 3248,
      "##ality": 3249,
      "member": 3250,
      "activ": 3251,
      "##ked": 3252,
      "##work": 3253,
      "##ows": 3254,
      "##orts": 3255,
      "2014": 3256,
      "bridge": 3257,
      "george": 3258,
      "hen": 3259,
      "mur": 3260,
      "mix": 3261,
      "football": 3262,
      "curr": 3263,
      "##iction": 3264,
      "god": 3265,
      "tor": 3266,
      "killed": 3267,
      "cert": 3268,
      "significant": 3269,
      "round": 3270,
      "que": 3271,
      "##idence": 3272,
      "saw": 3273,
      "taken": 3274,
      "##olution": 3275,
      "able": 3276,
      "mm": 3277,
      "establ": 3278,
      "bomb": 3279,
      "##ature": 3280,
      "##ming": 3281,
      "##elling": 3282,
      "ident": 3283,
      "gar": 3284,
      "##ids": 3285,
      "impro": 3286,
      "##cent": 3287,
      "sat": 3288,
      "becom": 3289,
      "action": 3290,
      "reb": 3291,
      "los": 3292,
      "human": 3293,
      "points": 3294,
      "pi": 3295,
      "does": 3296,
      "##enth": 3297,
      "mean": 3298,
      "##ecut": 3299,
      "established": 3300,
      "originally": 3301,
      "invest": 3302,
      "##yn": 3303,
      "sn": 3304,
      "thom": 3305,
      "australian": 3306,
      "subsequ": 3307,
      "grow": 3308,
      "##ped": 3309,
      "##aval": 3310,
      "others": 3311,
      "insp": 3312,
      "##tain": 3313,
      "##enced": 3314,
      "##ox": 3315,
      "##irl": 3316,
      "entire": 3317,
      "appeared": 3318,
      "david": 3319,
      "located": 3320,
      "director": 3321,
      "##rict": 3322,
      "features": 3323,
      "voc": 3324,
      "##oon": 3325,
      "process": 3326,
      "crew": 3327,
      "stage": 3328,
      "##ara": 3329,
      "commission": 3330,
      "##bur": 3331,
      "##ground": 3332,
      "business": 3333,
      "##aves": 3334,
      "den": 3335,
      "afric": 3336,
      "started": 3337,
      "##ius": 3338,
      "playing": 3339,
      "pot": 3340,
      "mother": 3341,
      "##odes": 3342,
      "expr": 3343,
      "caused": 3344,
      "##ray": 3345,
      "decided": 3346,
      "civil": 3347,
      "critics": 3348,
      "##ects": 3349,
      "kingdom": 3350,
      "##be": 3351,
      "##ogn": 3352,
      "feet": 3353,
      "word": 3354,
      "##ript": 3355,
      "rather": 3356,
      "rank": 3357,
      "##ators": 3358,
      "mater": 3359,
      "fourth": 3360,
      "##ament": 3361,
      "ur": 3362,
      "##ster": 3363,
      "##epend": 3364,
      "fell": 3365,
      "econ": 3366,
      "edu": 3367,
      "##cil": 3368,
      "econom": 3369,
      "inform": 3370,
      "independ": 3371,
      "behind": 3372,
      "##gg": 3373,
      "formed": 3374,
      "site": 3375,
      "ital": 3376,
      "discover": 3377,
      "represent": 3378,
      "##ani": 3379,
      "bi": 3380,
      "magaz": 3381,
      "added": 3382,
      "resear": 3383,
      "fleet": 3384,
      "important": 3385,
      "31": 3386,
      "188": 3387,
      "soon": 3388,
      "pred": 3389,
      "##ateg": 3390,
      "##ample": 3391,
      "##emy": 3392,
      "##reek": 3393,
      "comment": 3394,
      "##ivid": 3395,
      "##aur": 3396,
      "jud": 3397,
      "mart": 3398,
      "sam": 3399,
      "know": 3400,
      "##wood": 3401,
      "guns": 3402,
      "eastern": 3403,
      "ru": 3404,
      "##iers": 3405,
      "##hic": 3406,
      "damage": 3407,
      "pen": 3408,
      "educ": 3409,
      "##ades": 3410,
      "completed": 3411,
      "population": 3412,
      "tom": 3413,
      "mult": 3414,
      "almost": 3415,
      "green": 3416,
      "##den": 3417,
      "##head": 3418,
      "sex": 3419,
      "neg": 3420,
      "peak": 3421,
      "##ata": 3422,
      "robert": 3423,
      "inj": 3424,
      "##aces": 3425,
      "##su": 3426,
      "##omm": 3427,
      "lang": 3428,
      "close": 3429,
      "##ination": 3430,
      "interv": 3431,
      "cup": 3432,
      "##less": 3433,
      "key": 3434,
      "indian": 3435,
      "commit": 3436,
      "jour": 3437,
      "##go": 3438,
      "initially": 3439,
      "awards": 3440,
      "di": 3441,
      "##erm": 3442,
      "##itar": 3443,
      "princ": 3444,
      "loss": 3445,
      "treat": 3446,
      "2004": 3447,
      "##ways": 3448,
      "##ship": 3449,
      "##arch": 3450,
      "scre": 3451,
      "lack": 3452,
      "opened": 3453,
      "case": 3454,
      "creat": 3455,
      "##ki": 3456,
      "##eth": 3457,
      "social": 3458,
      "##oney": 3459,
      "host": 3460,
      "midd": 3461,
      "##ino": 3462,
      "michael": 3463,
      "pract": 3464,
      "proble": 3465,
      "ul": 3466,
      "##aps": 3467,
      "girl": 3468,
      "186": 3469,
      "relationship": 3470,
      "nar": 3471,
      "individ": 3472,
      "##ceed": 3473,
      "sus": 3474,
      "fund": 3475,
      "##rick": 3476,
      "sett": 3477,
      "sour": 3478,
      "##lin": 3479,
      "leading": 3480,
      "weeks": 3481,
      "##ee": 3482,
      "tradition": 3483,
      "2015": 3484,
      "bay": 3485,
      "working": 3486,
      "separ": 3487,
      "radio": 3488,
      "##ending": 3489,
      "clos": 3490,
      "prem": 3491,
      "##cast": 3492,
      "worked": 3493,
      "france": 3494,
      "diffic": 3495,
      "difficult": 3496,
      "recording": 3497,
      "lou": 3498,
      "secret": 3499,
      "##chest": 3500,
      "towards": 3501,
      "exc": 3502,
      "##ma": 3503,
      "##ula": 3504,
      "mac": 3505,
      "appoint": 3506,
      "##medi": 3507,
      "##oring": 3508,
      "##istic": 3509,
      "union": 3510,
      "mel": 3511,
      "scene": 3512,
      "council": 3513,
      "laun": 3514,
      "##umb": 3515,
      "##imes": 3516,
      "rain": 3517,
      "republ": 3518,
      "##asion": 3519,
      "goal": 3520,
      "wid": 3521,
      "er": 3522,
      "##ky": 3523,
      "angel": 3524,
      "pit": 3525,
      "room": 3526,
      "henry": 3527,
      "##igned": 3528,
      "quick": 3529,
      "##anch": 3530,
      "norm": 3531,
      "rap": 3532,
      "break": 3533,
      "material": 3534,
      "records": 3535,
      "navy": 3536,
      "accept": 3537,
      "vot": 3538,
      "##ena": 3539,
      "training": 3540,
      "##ica": 3541,
      "colon": 3542,
      "washing": 3543,
      "least": 3544,
      "scored": 3545,
      "provided": 3546,
      "reach": 3547,
      "must": 3548,
      "wanted": 3549,
      "ey": 3550,
      "rob": 3551,
      "fig": 3552,
      "##ze": 3553,
      "500": 3554,
      "troops": 3555,
      "brought": 3556,
      "average": 3557,
      "brig": 3558,
      "dut": 3559,
      "recogn": 3560,
      "##board": 3561,
      "featured": 3562,
      "cru": 3563,
      "earth": 3564,
      "##ams": 3565,
      "##iding": 3566,
      "##ological": 3567,
      "##cher": 3568,
      "feder": 3569,
      "##osition": 3570,
      "either": 3571,
      "foc": 3572,
      "tar": 3573,
      "nomin": 3574,
      "##off": 3575,
      "quar": 3576,
      "redu": 3577,
      "187": 3578,
      "proper": 3579,
      "allowed": 3580,
      "fa": 3581,
      "fut": 3582,
      "past": 3583,
      "estim": 3584,
      "##ential": 3585,
      "wife": 3586,
      "contract": 3587,
      "unc": 3588,
      "victory": 3589,
      "respect": 3590,
      "studio": 3591,
      "##here": 3592,
      "placed": 3593,
      "generally": 3594,
      "##aut": 3595,
      "avail": 3596,
      "washington": 3597,
      "inn": 3598,
      "rul": 3599,
      "cho": 3600,
      "ach": 3601,
      "priv": 3602,
      "##eter": 3603,
      "phys": 3604,
      "runs": 3605,
      "example": 3606,
      "dark": 3607,
      "events": 3608,
      "dro": 3609,
      "magazine": 3610,
      "battal": 3611,
      "chief": 3612,
      "##antic": 3613,
      "republic": 3614,
      "paul": 3615,
      "board": 3616,
      "##li": 3617,
      "summer": 3618,
      "##to": 3619,
      "cred": 3620,
      "grad": 3621,
      "##duct": 3622,
      "staff": 3623,
      "2003": 3624,
      "particip": 3625,
      "##uel": 3626,
      "joined": 3627,
      "designed": 3628,
      "squadron": 3629,
      "##ville": 3630,
      "surf": 3631,
      "hours": 3632,
      "wil": 3633,
      "regular": 3634,
      "esp": 3635,
      "##gar": 3636,
      "employ": 3637,
      "quest": 3638,
      "35": 3639,
      "##ells": 3640,
      "operation": 3641,
      "shot": 3642,
      "speed": 3643,
      "nine": 3644,
      "stru": 3645,
      "##mp": 3646,
      "##xic": 3647,
      "bal": 3648,
      "threat": 3649,
      "opening": 3650,
      "##iff": 3651,
      "relig": 3652,
      "media": 3653,
      "believed": 3654,
      "##ka": 3655,
      "##ving": 3656,
      "regard": 3657,
      "##anks": 3658,
      "come": 3659,
      "der": 3660,
      "##tim": 3661,
      "cycl": 3662,
      "##omp": 3663,
      "mary": 3664,
      "ox": 3665,
      "flight": 3666,
      "transport": 3667,
      "replaced": 3668,
      "mph": 3669,
      "step": 3670,
      "bir": 3671,
      "##aper": 3672,
      "prior": 3673,
      "ide": 3674,
      "scen": 3675,
      "winds": 3676,
      "infant": 3677,
      "pay": 3678,
      "stone": 3679,
      "##erous": 3680,
      "##imin": 3681,
      "sequ": 3682,
      "captain": 3683,
      "mcc": 3684,
      "police": 3685,
      "involved": 3686,
      "stop": 3687,
      "european": 3688,
      "##ification": 3689,
      "##gn": 3690,
      "langu": 3691,
      "minutes": 3692,
      "earlier": 3693,
      "##west": 3694,
      "##fall": 3695,
      "finished": 3696,
      "conduct": 3697,
      "research": 3698,
      "society": 3699,
      "news": 3700,
      "contrib": 3701,
      "length": 3702,
      "possible": 3703,
      "saying": 3704,
      "##ago": 3705,
      "##men": 3706,
      "immedi": 3707,
      "pil": 3708,
      "depr": 3709,
      "commerc": 3710,
      "change": 3711,
      "association": 3712,
      "trib": 3713,
      "space": 3714,
      "keep": 3715,
      "middle": 3716,
      "admin": 3717,
      "remov": 3718,
      "largest": 3719,
      "2000": 3720,
      "##for": 3721,
      "highest": 3722,
      "bad": 3723,
      "particularly": 3724,
      "boy": 3725,
      "films": 3726,
      "fly": 3727,
      "scott": 3728,
      "beginning": 3729,
      "exist": 3730,
      "lower": 3731,
      "ny": 3732,
      "##ha": 3733,
      "##ecutive": 3734,
      "available": 3735,
      "##ishing": 3736,
      "piec": 3737,
      "roman": 3738,
      "##ris": 3739,
      "respons": 3740,
      "uk": 3741,
      "percent": 3742,
      "virgin": 3743,
      "forced": 3744,
      "section": 3745,
      "2001": 3746,
      "assist": 3747,
      "plat": 3748,
      "flor": 3749,
      "better": 3750,
      "ver": 3751,
      "##icated": 3752,
      "##sel": 3753,
      "atl": 3754,
      "weak": 3755,
      "deal": 3756,
      "achie": 3757,
      "disp": 3758,
      "##hib": 3759,
      "outside": 3760,
      "##anned": 3761,
      "##ems": 3762,
      "taking": 3763,
      "anti": 3764,
      "lear": 3765,
      "##reg": 3766,
      "meas": 3767,
      "novel": 3768,
      "##mar": 3769,
      "charles": 3770,
      "committe": 3771,
      "##lement": 3772,
      "span": 3773,
      "##of": 3774,
      "heart": 3775,
      "grant": 3776,
      "##ography": 3777,
      "thomas": 3778,
      "turned": 3779,
      "increased": 3780,
      "ended": 3781,
      "##itz": 3782,
      "viol": 3783,
      "##erson": 3784,
      "reason": 3785,
      "units": 3786,
      "clear": 3787,
      "feel": 3788,
      "##ested": 3789,
      "community": 3790,
      "##bor": 3791,
      "reviews": 3792,
      "calif": 3793,
      "acad": 3794,
      "passed": 3795,
      "praised": 3796,
      "##oph": 3797,
      "californ": 3798,
      "hous": 3799,
      "##heast": 3800,
      "move": 3801,
      "product": 3802,
      "##wer": 3803,
      "##key": 3804,
      "emp": 3805,
      "going": 3806,
      "es": 3807,
      "beat": 3808,
      "##ios": 3809,
      "2002": 3810,
      "above": 3811,
      "additional": 3812,
      "future": 3813,
      "##iation": 3814,
      "##ude": 3815,
      "##oke": 3816,
      "appearance": 3817,
      "##itor": 3818,
      "ty": 3819,
      "phot": 3820,
      "thus": 3821,
      "tex": 3822,
      "guitar": 3823,
      "bird": 3824,
      "pan": 3825,
      "canada": 3826,
      "##aded": 3827,
      "lik": 3828,
      "enough": 3829,
      "liter": 3830,
      "infantry": 3831,
      "##ership": 3832,
      "ordered": 3833,
      "lake": 3834,
      "smith": 3835,
      "plot": 3836,
      "lat": 3837,
      "pun": 3838,
      "daugh": 3839,
      "previously": 3840,
      "castle": 3841,
      "##gress": 3842,
      "franc": 3843,
      "##ests": 3844,
      "##ush": 3845,
      "##oul": 3846,
      "##ocr": 3847,
      "personal": 3848,
      "signed": 3849,
      "musical": 3850,
      "minor": 3851,
      "account": 3852,
      "theat": 3853,
      "doc": 3854,
      "territ": 3855,
      "##rison": 3856,
      "richard": 3857,
      "type": 3858,
      "market": 3859,
      "shar": 3860,
      "alex": 3861,
      "##agon": 3862,
      "elements": 3863,
      "instit": 3864,
      "rights": 3865,
      "##arily": 3866,
      "dig": 3867,
      "##pped": 3868,
      "california": 3869,
      "pac": 3870,
      "positive": 3871,
      "corn": 3872,
      "ber": 3873,
      "##ida": 3874,
      "nec": 3875,
      "##ections": 3876,
      "prob": 3877,
      "##berg": 3878,
      "critical": 3879,
      "our": 3880,
      "dead": 3881,
      "##ference": 3882,
      "##tr": 3883,
      "abs": 3884,
      "##nal": 3885,
      "parts": 3886,
      "food": 3887,
      "lord": 3888,
      "profession": 3889,
      "background": 3890,
      "lines": 3891,
      "give": 3892,
      "travel": 3893,
      "pow": 3894,
      "##ening": 3895,
      "debut": 3896,
      "female": 3897,
      "##rated": 3898,
      "impr": 3899,
      "reveal": 3900,
      "spent": 3901,
      "beg": 3902,
      "##pper": 3903,
      "poor": 3904,
      "overall": 3905,
      "term": 3906,
      "##ased": 3907,
      "told": 3908,
      "money": 3909,
      "mic": 3910,
      "##ilities": 3911,
      "scient": 3912,
      "victor": 3913,
      "ps": 3914,
      "tax": 3915,
      "directed": 3916,
      "flood": 3917,
      "45": 3918,
      "##uation": 3919,
      "committee": 3920,
      "##back": 3921,
      "##usion": 3922,
      "deep": 3923,
      "blue": 3924,
      "##elled": 3925,
      "interview": 3926,
      "failed": 3927,
      "##uter": 3928,
      "domin": 3929,
      "kil": 3930,
      "##nes": 3931,
      "required": 3932,
      "roll": 3933,
      "ren": 3934,
      "groups": 3935,
      "chap": 3936,
      "##nel": 3937,
      "concert": 3938,
      "mach": 3939,
      "germany": 3940,
      "happ": 3941,
      "##ises": 3942,
      "broadcast": 3943,
      "##ique": 3944,
      "##bers": 3945,
      "district": 3946,
      "constit": 3947,
      "env": 3948,
      "anal": 3949,
      "##ston": 3950,
      "itself": 3951,
      "##ume": 3952,
      "health": 3953,
      "india": 3954,
      "peter": 3955,
      "battalion": 3956,
      "christian": 3957,
      "evidence": 3958,
      "sometimes": 3959,
      "fore": 3960,
      "frank": 3961,
      "##isl": 3962,
      "object": 3963,
      "##ga": 3964,
      "##my": 3965,
      "60": 3966,
      "##ibility": 3967,
      "appl": 3968,
      "prison": 3969,
      "wal": 3970,
      "bank": 3971,
      "185": 3972,
      "occup": 3973,
      "reception": 3974,
      "chic": 3975,
      "election": 3976,
      "investig": 3977,
      "ha": 3978,
      "commercial": 3979,
      "asked": 3980,
      "transfer": 3981,
      "##gen": 3982,
      "except": 3983,
      "##ension": 3984,
      "##ready": 3985,
      "##aker": 3986,
      "##stand": 3987,
      "##ex": 3988,
      "##erved": 3989,
      "parl": 3990,
      "lu": 3991,
      "##ability": 3992,
      "living": 3993,
      "##edy": 3994,
      "administ": 3995,
      "##ays": 3996,
      "sov": 3997,
      "whose": 3998,
      "##apt": 3999,
      "doct": 4000,
      "mexic": 4001,
      "natural": 4002,
      "##ream": 4003,
      "study": 4004,
      "complete": 4005,
      "##airs": 4006,
      "react": 4007,
      "already": 4008,
      "claimed": 4009,
      "governor": 4010,
      "##onna": 4011,
      "approxim": 4012,
      "ol": 4013,
      "score": 4014,
      "clim": 4015,
      "##tt": 4016,
      "##round": 4017,
      "bey": 4018,
      "square": 4019,
      "soviet": 4020,
      "##onse": 4021,
      "frequ": 4022,
      "##kn": 4023,
      "introduced": 4024,
      "minister": 4025,
      "##igan": 4026,
      "32": 4027,
      "whom": 4028,
      "amb": 4029,
      "##ii": 4030,
      "##onst": 4031,
      "think": 4032,
      "usually": 4033,
      "burn": 4034,
      "##bc": 4035,
      "muse": 4036,
      "woman": 4037,
      "##wor": 4038,
      "students": 4039,
      "##enue": 4040,
      "bul": 4041,
      "education": 4042,
      "quickly": 4043,
      "idea": 4044,
      "ben": 4045,
      "limited": 4046,
      "wild": 4047,
      "bud": 4048,
      "rh": 4049,
      "##aint": 4050,
      "guard": 4051,
      "might": 4052,
      "effects": 4053,
      "construct": 4054,
      "movement": 4055,
      "concern": 4056,
      "stars": 4057,
      "syn": 4058,
      "response": 4059,
      "##atory": 4060,
      "subject": 4061,
      "issue": 4062,
      "tun": 4063,
      "commander": 4064,
      "polic": 4065,
      "centre": 4066,
      "slow": 4067,
      "rac": 4068,
      "##ites": 4069,
      "queen": 4070,
      "##bour": 4071,
      "##ump": 4072,
      "plant": 4073,
      "surface": 4074,
      "certain": 4075,
      "your": 4076,
      "##ores": 4077,
      "anc": 4078,
      "lie": 4079,
      "lib": 4080,
      "lay": 4081,
      "espec": 4082,
      "department": 4083,
      "got": 4084,
      "fifth": 4085,
      "arrived": 4086,
      "hosp": 4087,
      "sand": 4088,
      "##che": 4089,
      "britain": 4090,
      "especially": 4091,
      "face": 4092,
      "decision": 4093,
      "services": 4094,
      "##oor": 4095,
      "##ergy": 4096,
      "operations": 4097,
      "village": 4098,
      "teams": 4099,
      "##esh": 4100,
      "voice": 4101,
      "parliam": 4102,
      "self": 4103,
      "compl": 4104,
      "structure": 4105,
      "box": 4106,
      "shows": 4107,
      "museum": 4108,
      "contr": 4109,
      "gard": 4110,
      "##anded": 4111,
      "impact": 4112,
      "industry": 4113,
      "walk": 4114,
      "larger": 4115,
      "ultim": 4116,
      "gro": 4117,
      "writer": 4118,
      "science": 4119,
      "mas": 4120,
      "lyric": 4121,
      "fest": 4122,
      "becoming": 4123,
      "remaining": 4124,
      "estimated": 4125,
      "latter": 4126,
      "episodes": 4127,
      "remain": 4128,
      "defeated": 4129,
      "carried": 4130,
      "##val": 4131,
      "heav": 4132,
      "parliament": 4133,
      "access": 4134,
      "##ba": 4135,
      "multip": 4136,
      "ran": 4137,
      "network": 4138,
      "draw": 4139,
      "discuss": 4140,
      "##aries": 4141,
      "##iron": 4142,
      "##ties": 4143,
      "pressure": 4144,
      "blood": 4145,
      "flag": 4146,
      "1999": 4147,
      "##wh": 4148,
      "surround": 4149,
      "scenes": 4150,
      "kh": 4151,
      "##ully": 4152,
      "36": 4153,
      "cm": 4154,
      "consider": 4155,
      "brief": 4156,
      "##ective": 4157,
      "leaving": 4158,
      "##ulf": 4159,
      "cand": 4160,
      "running": 4161,
      "changes": 4162,
      "sem": 4163,
      "acqu": 4164,
      "virginia": 4165,
      "jew": 4166,
      "##ift": 4167,
      "susp": 4168,
      "##ror": 4169,
      "diss": 4170,
      "naval": 4171,
      "##porary": 4172,
      "suggested": 4173,
      "entered": 4174,
      "meth": 4175,
      "##orial": 4176,
      "nearly": 4177,
      "depression": 4178,
      "fail": 4179,
      "quarter": 4180,
      "appointed": 4181,
      "winning": 4182,
      "##ania": 4183,
      "influence": 4184,
      "dom": 4185,
      "date": 4186,
      "approximately": 4187,
      "subst": 4188,
      "chall": 4189,
      "twent": 4190,
      "emb": 4191,
      "size": 4192,
      "bat": 4193,
      "van": 4194,
      "##ander": 4195,
      "capital": 4196,
      "leader": 4197,
      "##inct": 4198,
      "##ining": 4199,
      "language": 4200,
      "fant": 4201,
      "regiment": 4202,
      "##erve": 4203,
      "shortly": 4204,
      "empire": 4205,
      "islands": 4206,
      "establish": 4207,
      "script": 4208,
      "federal": 4209,
      "favor": 4210,
      "course": 4211,
      "today": 4212,
      "jackson": 4213,
      "finally": 4214,
      "princip": 4215,
      "wide": 4216,
      "##oms": 4217,
      "cann": 4218,
      "screen": 4219,
      "##change": 4220,
      "upper": 4221,
      "tracks": 4222,
      "mission": 4223,
      "oly": 4224,
      "louis": 4225,
      "amount": 4226,
      "destroyed": 4227,
      "proposed": 4228,
      "##pre": 4229,
      "daughter": 4230,
      "##anced": 4231,
      "aw": 4232,
      "current": 4233,
      "75": 4234,
      "purch": 4235,
      "##ulated": 4236,
      "olymp": 4237,
      "##ecting": 4238,
      "higher": 4239,
      "wing": 4240,
      "producer": 4241,
      "##burg": 4242,
      "manager": 4243,
      "arrang": 4244,
      "spanish": 4245,
      "corps": 4246,
      "lad": 4247,
      "experience": 4248,
      "nature": 4249,
      "pict": 4250,
      "distrib": 4251,
      "gi": 4252,
      "environ": 4253,
      "fer": 4254,
      "300": 4255,
      "##iser": 4256,
      "horse": 4257,
      "##abor": 4258,
      "provide": 4259,
      "subsequently": 4260,
      "canc": 4261,
      "##oid": 4262,
      "brigade": 4263,
      "battles": 4264,
      "spir": 4265,
      "##idents": 4266,
      "railway": 4267,
      "professional": 4268,
      "##selves": 4269,
      "altern": 4270,
      "compared": 4271,
      "breed": 4272,
      "democr": 4273,
      "complex": 4274,
      "iron": 4275,
      "concept": 4276,
      "intended": 4277,
      "immediately": 4278,
      "emerg": 4279,
      "cele": 4280,
      "married": 4281,
      "cer": 4282,
      "liber": 4283,
      "##inese": 4284,
      "##king": 4285,
      "private": 4286,
      "184": 4287,
      "saf": 4288,
      "fans": 4289,
      "temper": 4290,
      "journal": 4291,
      "supported": 4292,
      "agreed": 4293,
      "mont": 4294,
      "##ope": 4295,
      "stay": 4296,
      "entertain": 4297,
      "mr": 4298,
      "card": 4299,
      "shoot": 4300,
      "intens": 4301,
      "80": 4302,
      "archit": 4303,
      "bord": 4304,
      "##alled": 4305,
      "compan": 4306,
      "done": 4307,
      "model": 4308,
      "edward": 4309,
      "imm": 4310,
      "feature": 4311,
      "jose": 4312,
      "increasing": 4313,
      "initial": 4314,
      "awarded": 4315,
      "weap": 4316,
      "fiction": 4317,
      "display": 4318,
      "##tained": 4319,
      "chicago": 4320,
      "chinese": 4321,
      "whether": 4322,
      "helped": 4323,
      "related": 4324,
      "fair": 4325,
      "##hem": 4326,
      "legisl": 4327,
      "planned": 4328,
      "##ria": 4329,
      "##down": 4330,
      "books": 4331,
      "##ication": 4332,
      "officer": 4333,
      "1998": 4334,
      "ho": 4335,
      "soldiers": 4336,
      "##oles": 4337,
      "create": 4338,
      "bring": 4339,
      "longer": 4340,
      "artic": 4341,
      "trade": 4342,
      "penn": 4343,
      "kar": 4344,
      "here": 4345,
      "gal": 4346,
      "##atively": 4347,
      "color": 4348,
      "##aring": 4349,
      "attract": 4350,
      "cause": 4351,
      "plans": 4352,
      "captured": 4353,
      "33": 4354,
      "##thing": 4355,
      "valley": 4356,
      "##teen": 4357,
      "yet": 4358,
      "##gy": 4359,
      "buildings": 4360,
      "conserv": 4361,
      "unit": 4362,
      "block": 4363,
      "forward": 4364,
      "pu": 4365,
      "changed": 4366,
      "sev": 4367,
      "##ector": 4368,
      "conclud": 4369,
      "withd": 4370,
      "winter": 4371,
      "##icted": 4372,
      "martin": 4373,
      "coach": 4374,
      "##ban": 4375,
      "##ching": 4376,
      "associated": 4377,
      "friends": 4378,
      "##aph": 4379,
      "mom": 4380,
      "dance": 4381,
      "something": 4382,
      "kore": 4383,
      "officers": 4384,
      "instr": 4385,
      "spring": 4386,
      "pacific": 4387,
      "remains": 4388,
      "mostly": 4389,
      "singles": 4390,
      "billboard": 4391,
      "johnson": 4392,
      "##abit": 4393,
      "themselves": 4394,
      "standard": 4395,
      "rat": 4396,
      "##rupt": 4397,
      "##ronic": 4398,
      "##ken": 4399,
      "countries": 4400,
      "lyrics": 4401,
      "exam": 4402,
      "mixed": 4403,
      "probably": 4404,
      "##riage": 4405,
      "hero": 4406,
      "##itting": 4407,
      "really": 4408,
      "method": 4409,
      "extended": 4410,
      "ray": 4411,
      "##mon": 4412,
      "moving": 4413,
      "numerous": 4414,
      "ple": 4415,
      "financ": 4416,
      "##umn": 4417,
      "draft": 4418,
      "##ta": 4419,
      "sir": 4420,
      "##uit": 4421,
      "oce": 4422,
      "##ny": 4423,
      "information": 4424,
      "ast": 4425,
      "tas": 4426,
      "portray": 4427,
      "contem": 4428,
      "copies": 4429,
      "always": 4430,
      "nation": 4431,
      "rid": 4432,
      "37": 4433,
      "##can": 4434,
      "scot": 4435,
      "location": 4436,
      "##asy": 4437,
      "visit": 4438,
      "goals": 4439,
      "admir": 4440,
      "##isions": 4441,
      "##rd": 4442,
      "individual": 4443,
      "birth": 4444,
      "##rol": 4445,
      "sales": 4446,
      "##well": 4447,
      "focus": 4448,
      "1997": 4449,
      "issued": 4450,
      "counter": 4451,
      "##olic": 4452,
      "congress": 4453,
      "confl": 4454,
      "status": 4455,
      "##ands": 4456,
      "leave": 4457,
      "energy": 4458,
      "atlantic": 4459,
      "##andon": 4460,
      "includes": 4461,
      "artist": 4462,
      "cit": 4463,
      "conference": 4464,
      "jim": 4465,
      "suffered": 4466,
      "mess": 4467,
      "singer": 4468,
      "edition": 4469,
      "hospital": 4470,
      "traff": 4471,
      "tal": 4472,
      "via": 4473,
      "male": 4474,
      "hu": 4475,
      "prec": 4476,
      "florida": 4477,
      "maxim": 4478,
      "termin": 4479,
      "problems": 4480,
      "gall": 4481,
      "albums": 4482,
      "70": 4483,
      "meeting": 4484,
      "likely": 4485,
      "##hood": 4486,
      "##uk": 4487,
      "bene": 4488,
      "china": 4489,
      "increase": 4490,
      "##etic": 4491,
      "carry": 4492,
      "revolution": 4493,
      "assemb": 4494,
      "double": 4495,
      "independent": 4496,
      "##isc": 4497,
      "removed": 4498,
      "approach": 4499,
      "00": 4500,
      "morn": 4501,
      "##bury": 4502,
      "dog": 4503,
      "celebr": 4504,
      "bond": 4505,
      "movie": 4506,
      "##tic": 4507,
      "carol": 4508,
      "##hl": 4509,
      "##fact": 4510,
      "##bed": 4511,
      "texas": 4512,
      "inspired": 4513,
      "##ili": 4514,
      "lin": 4515,
      "foreign": 4516,
      "##atives": 4517,
      "##ental": 4518,
      "rang": 4519,
      "##ously": 4520,
      "master": 4521,
      "terms": 4522,
      "primary": 4523,
      "creek": 4524,
      "dv": 4525,
      "majority": 4526,
      "kind": 4527,
      "compos": 4528,
      "sar": 4529,
      "offered": 4530,
      "##jected": 4531,
      "consist": 4532,
      "vehic": 4533,
      "qual": 4534,
      "minute": 4535,
      "##vin": 4536,
      "ut": 4537,
      "refl": 4538,
      "##ograph": 4539,
      "tons": 4540,
      "ice": 4541,
      "stad": 4542,
      "ens": 4543,
      "kr": 4544,
      "inters": 4545,
      "dail": 4546,
      "##ette": 4547,
      "drum": 4548,
      "adop": 4549,
      "attacks": 4550,
      "##aj": 4551,
      "##lands": 4552,
      "od": 4553,
      "fox": 4554,
      "entertainment": 4555,
      "makes": 4556,
      "confir": 4557,
      "takes": 4558,
      "oil": 4559,
      "composed": 4560,
      "183": 4561,
      "damaged": 4562,
      "raised": 4563,
      "combat": 4564,
      "simp": 4565,
      "canadian": 4566,
      "ranked": 4567,
      "environment": 4568,
      "observ": 4569,
      "africa": 4570,
      "##ounds": 4571,
      "wa": 4572,
      "log": 4573,
      "##aches": 4574,
      "intell": 4575,
      "cyclone": 4576,
      "letter": 4577,
      "daily": 4578,
      "adult": 4579,
      "##era": 4580,
      "und": 4581,
      "mun": 4582,
      "appears": 4583,
      "selected": 4584,
      "fighting": 4585,
      "bor": 4586,
      "mountain": 4587,
      "categ": 4588,
      "revealed": 4589,
      "era": 4590,
      "##uth": 4591,
      "train": 4592,
      "discovered": 4593,
      "ath": 4594,
      "##ado": 4595,
      "metal": 4596,
      "active": 4597,
      "determ": 4598,
      "wrest": 4599,
      "russian": 4600,
      "ign": 4601,
      "##chester": 4602,
      "##ify": 4603,
      "##ucle": 4604,
      "34": 4605,
      "morning": 4606,
      "inside": 4607,
      "conditions": 4608,
      "architect": 4609,
      "##leg": 4610,
      "twenty": 4611,
      "kent": 4612,
      "tv": 4613,
      "unable": 4614,
      "##uries": 4615,
      "launched": 4616,
      "ven": 4617,
      "##urs": 4618,
      "dun": 4619,
      "accomp": 4620,
      "greater": 4621,
      "38": 4622,
      "deg": 4623,
      "##light": 4624,
      "##ails": 4625,
      "##umed": 4626,
      "respectively": 4627,
      "angeles": 4628,
      "wit": 4629,
      "iv": 4630,
      "incor": 4631,
      "sched": 4632,
      "1995": 4633,
      "whole": 4634,
      "numbers": 4635,
      "##ription": 4636,
      "issues": 4637,
      "needed": 4638,
      "sister": 4639,
      "smaller": 4640,
      "below": 4641,
      "bed": 4642,
      "gas": 4643,
      "thir": 4644,
      "lived": 4645,
      "ali": 4646,
      "touch": 4647,
      "contains": 4648,
      "##oud": 4649,
      "yard": 4650,
      "schol": 4651,
      "attempted": 4652,
      "slight": 4653,
      "attacked": 4654,
      "ca": 4655,
      "traditional": 4656,
      "yards": 4657,
      "dar": 4658,
      "shown": 4659,
      "stra": 4660,
      "newsp": 4661,
      "##aught": 4662,
      "occurred": 4663,
      "##rect": 4664,
      "culture": 4665,
      "##ste": 4666,
      "religious": 4667,
      "##lor": 4668,
      "##uments": 4669,
      "iii": 4670,
      "cart": 4671,
      "pick": 4672,
      "##zz": 4673,
      "nick": 4674,
      "##uals": 4675,
      "cab": 4676,
      "##oo": 4677,
      "silver": 4678,
      "##gs": 4679,
      "##aging": 4680,
      "ring": 4681,
      "sports": 4682,
      "bab": 4683,
      "defeat": 4684,
      "##ault": 4685,
      "tourn": 4686,
      "##ortun": 4687,
      "##joy": 4688,
      "actor": 4689,
      "##ev": 4690,
      "annual": 4691,
      "experi": 4692,
      "rein": 4693,
      "constant": 4694,
      "elected": 4695,
      "festival": 4696,
      "larg": 4697,
      "2016": 4698,
      "peace": 4699,
      "##olk": 4700,
      "1996": 4701,
      "referred": 4702,
      "fear": 4703,
      "reform": 4704,
      "##izing": 4705,
      "##amb": 4706,
      "francis": 4707,
      "mind": 4708,
      "bon": 4709,
      "neigh": 4710,
      "##urity": 4711,
      "asp": 4712,
      "ocean": 4713,
      "sav": 4714,
      "##vert": 4715,
      "theme": 4716,
      "##rial": 4717,
      "19th": 4718,
      "audience": 4719,
      "os": 4720,
      "schools": 4721,
      "resulted": 4722,
      "##com": 4723,
      "psy": 4724,
      "largely": 4725,
      "express": 4726,
      "ris": 4727,
      "prince": 4728,
      "assigned": 4729,
      "magn": 4730,
      "covered": 4731,
      "##ari": 4732,
      "##enant": 4733,
      "fast": 4734,
      "link": 4735,
      "##osaur": 4736,
      "90": 4737,
      "italian": 4738,
      "listed": 4739,
      "variety": 4740,
      "collection": 4741,
      "indic": 4742,
      "purp": 4743,
      "##ogue": 4744,
      "coup": 4745,
      "##uated": 4746,
      "pair": 4747,
      "1994": 4748,
      "competition": 4749,
      "conflict": 4750,
      "glob": 4751,
      "viet": 4752,
      "cath": 4753,
      "ash": 4754,
      "names": 4755,
      "earned": 4756,
      "stadium": 4757,
      "controvers": 4758,
      "##quar": 4759,
      "recover": 4760,
      "##ocks": 4761,
      "expected": 4762,
      "commented": 4763,
      "cham": 4764,
      "haw": 4765,
      "imper": 4766,
      "starting": 4767,
      "##itude": 4768,
      "dvd": 4769,
      "rapid": 4770,
      "attention": 4771,
      "closed": 4772,
      "##ya": 4773,
      "performances": 4774,
      "nucle": 4775,
      "##tered": 4776,
      "question": 4777,
      "prevent": 4778,
      "airport": 4779,
      "zeal": 4780,
      "##use": 4781,
      "michigan": 4782,
      "giving": 4783,
      "extre": 4784,
      "spl": 4785,
      "legal": 4786,
      "refused": 4787,
      "mir": 4788,
      "economic": 4789,
      "figh": 4790,
      "continu": 4791,
      "crow": 4792,
      "ros": 4793,
      "cust": 4794,
      "greatest": 4795,
      "waters": 4796,
      "##aped": 4797,
      "contact": 4798,
      "enjoy": 4799,
      "##asc": 4800,
      "electric": 4801,
      "##rian": 4802,
      "tower": 4803,
      "wales": 4804,
      "ability": 4805,
      "serious": 4806,
      "direction": 4807,
      "notes": 4808,
      "disapp": 4809,
      "stories": 4810,
      "##ipped": 4811,
      "native": 4812,
      "hund": 4813,
      "promin": 4814,
      "declared": 4815,
      "rate": 4816,
      "##ker": 4817,
      "meant": 4818,
      "forest": 4819,
      "matches": 4820,
      "hus": 4821,
      "49": 4822,
      "vocals": 4823,
      "##bridge": 4824,
      "poll": 4825,
      "things": 4826,
      "stan": 4827,
      "##bre": 4828,
      "180": 4829,
      "hundred": 4830,
      "##isher": 4831,
      "mention": 4832,
      "abandon": 4833,
      "##ples": 4834,
      "##ims": 4835,
      "levels": 4836,
      "##ij": 4837,
      "progress": 4838,
      "words": 4839,
      "athlet": 4840,
      "swe": 4841,
      "##iest": 4842,
      "text": 4843,
      "nearby": 4844,
      "chann": 4845,
      "##yr": 4846,
      "die": 4847,
      "fill": 4848,
      "marriage": 4849,
      "nin": 4850,
      "matt": 4851,
      "produce": 4852,
      "##yan": 4853,
      "##gl": 4854,
      "defense": 4855,
      "##anes": 4856,
      "necess": 4857,
      "constitution": 4858,
      "cry": 4859,
      "practice": 4860,
      "doctor": 4861,
      "mech": 4862,
      "constructed": 4863,
      "41": 4864,
      "kenn": 4865,
      "hyd": 4866,
      "advance": 4867,
      "emper": 4868,
      "occasion": 4869,
      "source": 4870,
      "wear": 4871,
      "##hold": 4872,
      "##ols": 4873,
      "##ona": 4874,
      "##odies": 4875,
      "lot": 4876,
      "##ging": 4877,
      "##win": 4878,
      "fantasy": 4879,
      "candid": 4880,
      "1992": 4881,
      "mu": 4882,
      "kilomet": 4883,
      "##road": 4884,
      "weather": 4885,
      "vocal": 4886,
      "##cy": 4887,
      "separate": 4888,
      "##overs": 4889,
      "##wide": 4890,
      "highly": 4891,
      "labor": 4892,
      "oh": 4893,
      "means": 4894,
      "eth": 4895,
      "##kin": 4896,
      "1st": 4897,
      "farm": 4898,
      "writers": 4899,
      "overs": 4900,
      "##ional": 4901,
      "medical": 4902,
      "##uct": 4903,
      "mexico": 4904,
      "##itation": 4905,
      "spot": 4906,
      "zealand": 4907,
      "executive": 4908,
      "exhib": 4909,
      "##ellow": 4910,
      "directly": 4911,
      "##ishop": 4912,
      "positions": 4913,
      "ultimately": 4914,
      "northwest": 4915,
      "##acher": 4916,
      "ess": 4917,
      "sle": 4918,
      "continue": 4919,
      "les": 4920,
      "400": 4921,
      "presented": 4922,
      "reduced": 4923,
      "effort": 4924,
      "african": 4925,
      "##rie": 4926,
      "cub": 4927,
      "flow": 4928,
      "##mas": 4929,
      "admiral": 4930,
      "da": 4931,
      "chem": 4932,
      "bound": 4933,
      "##writ": 4934,
      "dyn": 4935,
      "brad": 4936,
      "##rey": 4937,
      "efforts": 4938,
      "55": 4939,
      "dism": 4940,
      "##ibly": 4941,
      "defend": 4942,
      "strateg": 4943,
      "animals": 4944,
      "##ingu": 4945,
      "formation": 4946,
      "mechan": 4947,
      "##band": 4948,
      "lieut": 4949,
      "houses": 4950,
      "##oper": 4951,
      "tried": 4952,
      "chris": 4953,
      "memorial": 4954,
      "##rical": 4955,
      "attended": 4956,
      "batter": 4957,
      "studies": 4958,
      "ram": 4959,
      "accepted": 4960,
      "stating": 4961,
      "theatre": 4962,
      "financial": 4963,
      "crick": 4964,
      "perm": 4965,
      "talk": 4966,
      "rule": 4967,
      "libr": 4968,
      "lif": 4969,
      "madonna": 4970,
      "symb": 4971,
      "##vement": 4972,
      "##rier": 4973,
      "bob": 4974,
      "seem": 4975,
      "specific": 4976,
      "1993": 4977,
      "20th": 4978,
      "##gu": 4979,
      "1991": 4980,
      "##une": 4981,
      "thick": 4982,
      "prep": 4983,
      "recomm": 4984,
      "advent": 4985,
      "inch": 4986,
      "incorpor": 4987,
      "favour": 4988,
      "##isation": 4989,
      "prepar": 4990,
      "ending": 4991,
      "begins": 4992,
      "mol": 4993,
      "##track": 4994,
      "saint": 4995,
      "cerem": 4996,
      "179": 4997,
      "jer": 4998,
      "bell": 4999,
      "organization": 5000,
      "honor": 5001,
      "pilot": 5002,
      "traffic": 5003,
      "sides": 5004,
      "enemy": 5005,
      "cases": 5006,
      "scotland": 5007,
      "true": 5008,
      "##ca": 5009,
      "multiple": 5010,
      "jones": 5011,
      "mos": 5012,
      "39": 5013,
      "attend": 5014,
      "luc": 5015,
      "mob": 5016,
      "##illery": 5017,
      "drive": 5018,
      "##ersey": 5019,
      "chair": 5020,
      "pack": 5021,
      "rough": 5022,
      "flying": 5023,
      "##house": 5024,
      "##ners": 5025,
      "responsible": 5026,
      "eye": 5027,
      "##ung": 5028,
      "##iance": 5029,
      "managed": 5030,
      "forms": 5031,
      "wound": 5032,
      "meaning": 5033,
      "42": 5034,
      "arab": 5035,
      "uses": 5036,
      "cold": 5037,
      "resulting": 5038,
      "greek": 5039,
      "##uff": 5040,
      "dan": 5041,
      "tournament": 5042,
      "ll": 5043,
      "kept": 5044,
      "##olf": 5045,
      "48": 5046,
      "##utions": 5047,
      "lieutenant": 5048,
      "soundtrack": 5049,
      "academy": 5050,
      "dropped": 5051,
      "showed": 5052,
      "diam": 5053,
      "##ita": 5054,
      "repe": 5055,
      "authority": 5056,
      "policy": 5057,
      "##ero": 5058,
      "182": 5059,
      "bost": 5060,
      "##like": 5061,
      "exped": 5062,
      "quality": 5063,
      "path": 5064,
      "prime": 5065,
      "strugg": 5066,
      "hors": 5067,
      "row": 5068,
      "emperor": 5069,
      "wick": 5070,
      "artillery": 5071,
      "apart": 5072,
      "combined": 5073,
      "spirit": 5074,
      "ded": 5075,
      "dru": 5076,
      "boat": 5077,
      "##ceeded": 5078,
      "acting": 5079,
      "rose": 5080,
      "founded": 5081,
      "secretary": 5082,
      "##cing": 5083,
      "trial": 5084,
      "##ada": 5085,
      "continues": 5086,
      "administration": 5087,
      "marked": 5088,
      "edge": 5089,
      "##nam": 5090,
      "passeng": 5091,
      "inches": 5092,
      "##cend": 5093,
      "property": 5094,
      "##ires": 5095,
      "print": 5096,
      "williams": 5097,
      "systems": 5098,
      "encoun": 5099,
      "subsequent": 5100,
      "propos": 5101,
      "181": 5102,
      "artists": 5103,
      "contemporary": 5104,
      "attempts": 5105,
      "search": 5106,
      "territory": 5107,
      "paris": 5108,
      "##essions": 5109,
      "##iated": 5110,
      "##gypt": 5111,
      "northeast": 5112,
      "rear": 5113,
      "appar": 5114,
      "steam": 5115,
      "marsh": 5116,
      "companies": 5117,
      "##osh": 5118,
      "suppl": 5119,
      "##thel": 5120,
      "planet": 5121,
      "potential": 5122,
      "perf": 5123,
      "presence": 5124,
      "coal": 5125,
      "ni": 5126,
      "metres": 5127,
      "viewers": 5128,
      "##ees": 5129,
      "##icip": 5130,
      "allowing": 5131,
      "convention": 5132,
      "ban": 5133,
      "thous": 5134,
      "egypt": 5135,
      "studios": 5136,
      "sixth": 5137,
      "##ulations": 5138,
      "rod": 5139,
      "##essor": 5140,
      "recent": 5141,
      "scale": 5142,
      "##ils": 5143,
      "1942": 5144,
      "officials": 5145,
      "conducted": 5146,
      "target": 5147,
      "behav": 5148,
      "##thur": 5149,
      "job": 5150,
      "respond": 5151,
      "fat": 5152,
      "distinct": 5153,
      "seg": 5154,
      "digital": 5155,
      "filming": 5156,
      "##inem": 5157,
      "machine": 5158,
      "headquar": 5159,
      "contrast": 5160,
      "##rain": 5161,
      "##oe": 5162,
      "transferred": 5163,
      "collabor": 5164,
      "colour": 5165,
      "##standing": 5166,
      "##ket": 5167,
      "latin": 5168,
      "lee": 5169,
      "parents": 5170,
      "yellow": 5171,
      "scoring": 5172,
      "opportun": 5173,
      "bott": 5174,
      "maximum": 5175,
      "65": 5176,
      "47": 5177,
      "senior": 5178,
      "sac": 5179,
      "corpor": 5180,
      "figure": 5181,
      "coming": 5182,
      "ec": 5183,
      "demonst": 5184,
      "stephen": 5185,
      "##ications": 5186,
      "##enge": 5187,
      "allied": 5188,
      "joseph": 5189,
      "featuring": 5190,
      "beaut": 5191,
      "torped": 5192,
      "##aga": 5193,
      "therefore": 5194,
      "georg": 5195,
      "primarily": 5196,
      "relatively": 5197,
      "elev": 5198,
      "oxford": 5199,
      "owned": 5200,
      "opt": 5201,
      "theory": 5202,
      "peaked": 5203,
      "piece": 5204,
      "student": 5205,
      "becomes": 5206,
      "diseas": 5207,
      "temple": 5208,
      "titled": 5209,
      "torpedo": 5210,
      "mort": 5211,
      "actually": 5212,
      "hers": 5213,
      "portion": 5214,
      "distance": 5215,
      "battleship": 5216,
      "citiz": 5217,
      "##sen": 5218,
      "concluded": 5219,
      "ton": 5220,
      "stock": 5221,
      "boston": 5222,
      "##orter": 5223,
      "##unt": 5224,
      "manchester": 5225,
      "invasion": 5226,
      "mut": 5227,
      "harrison": 5228,
      "strength": 5229,
      "situation": 5230,
      "bass": 5231,
      "write": 5232,
      "bit": 5233,
      "premi": 5234,
      "jeff": 5235,
      "transl": 5236,
      "psych": 5237,
      "46": 5238,
      "52": 5239,
      "broke": 5240,
      "resist": 5241,
      "function": 5242,
      "observed": 5243,
      "selling": 5244,
      "physical": 5245,
      "##ding": 5246,
      "security": 5247,
      "alongside": 5248,
      "swed": 5249,
      "lov": 5250,
      "rot": 5251,
      "plays": 5252,
      "doll": 5253,
      "personnel": 5254,
      "results": 5255,
      "concent": 5256,
      "share": 5257,
      "##istics": 5258,
      "sources": 5259,
      "divided": 5260,
      "paid": 5261,
      "seconds": 5262,
      "calling": 5263,
      "mis": 5264,
      "rating": 5265,
      "cities": 5266,
      "1944": 5267,
      "##ini": 5268,
      "slightly": 5269,
      "43": 5270,
      "border": 5271,
      "inh": 5272,
      "returning": 5273,
      "powerful": 5274,
      "columb": 5275,
      "##stein": 5276,
      "jersey": 5277,
      "management": 5278,
      "imperial": 5279,
      "ott": 5280,
      "tree": 5281,
      "64": 5282,
      "historian": 5283,
      "##rawn": 5284,
      "arts": 5285,
      "historical": 5286,
      "shel": 5287,
      "44": 5288,
      "sust": 5289,
      "kg": 5290,
      "conver": 5291,
      "minim": 5292,
      "mile": 5293,
      "onto": 5294,
      "vess": 5295,
      "actions": 5296,
      "else": 5297,
      "##aming": 5298,
      "platform": 5299,
      "adj": 5300,
      "##za": 5301,
      "##anna": 5302,
      "nothing": 5303,
      "##iced": 5304,
      "birds": 5305,
      "beach": 5306,
      "influenced": 5307,
      "ow": 5308,
      "freed": 5309,
      "activity": 5310,
      "carl": 5311,
      "innings": 5312,
      "trust": 5313,
      "fan": 5314,
      "suc": 5315,
      "poet": 5316,
      "##astic": 5317,
      "residents": 5318,
      "ire": 5319,
      "comedy": 5320,
      "bbc": 5321,
      "tend": 5322,
      "designated": 5323,
      "promoted": 5324,
      "nominated": 5325,
      "1990": 5326,
      "passing": 5327,
      "resc": 5328,
      "cultural": 5329,
      "et": 5330,
      "cricket": 5331,
      "crown": 5332,
      "appeal": 5333,
      "completely": 5334,
      "croat": 5335,
      "##ips": 5336,
      "guest": 5337,
      "problem": 5338,
      "##de": 5339,
      "##don": 5340,
      "avenue": 5341,
      "lane": 5342,
      "weight": 5343,
      "height": 5344,
      "mainly": 5345,
      "sexual": 5346,
      "trail": 5347,
      "##mond": 5348,
      "struck": 5349,
      "##omy": 5350,
      "orchest": 5351,
      "##istry": 5352,
      "charts": 5353,
      "doub": 5354,
      "arms": 5355,
      "##iber": 5356,
      "sought": 5357,
      "replac": 5358,
      "encour": 5359,
      "charge": 5360,
      "hands": 5361,
      "sense": 5362,
      "1945": 5363,
      "seasons": 5364,
      "content": 5365,
      "webs": 5366,
      "equip": 5367,
      "1941": 5368,
      "subm": 5369,
      "ancient": 5370,
      "150": 5371,
      "paper": 5372,
      "vari": 5373,
      "feed": 5374,
      "pul": 5375,
      "fish": 5376,
      "##rate": 5377,
      "image": 5378,
      "bowl": 5379,
      "reaching": 5380,
      "document": 5381,
      "sr": 5382,
      "##while": 5383,
      "spect": 5384,
      "##ills": 5385,
      "weapons": 5386,
      "cell": 5387,
      "italy": 5388,
      "##iano": 5389,
      "##olved": 5390,
      "dang": 5391,
      "medal": 5392,
      "americans": 5393,
      "channel": 5394,
      "widely": 5395,
      "##ider": 5396,
      "instrument": 5397,
      "shell": 5398,
      "##ques": 5399,
      "baseball": 5400,
      "appearances": 5401,
      "##ota": 5402,
      "habit": 5403,
      "harv": 5404,
      "wars": 5405,
      "intellig": 5406,
      "alone": 5407,
      "emot": 5408,
      "##oman": 5409,
      "confirmed": 5410,
      "##rative": 5411,
      "##iles": 5412,
      "hotel": 5413,
      "gained": 5414,
      "##inn": 5415,
      "##ylv": 5416,
      "##pass": 5417,
      "beyond": 5418,
      "##cle": 5419,
      "##ura": 5420,
      "2nd": 5421,
      "compar": 5422,
      "##adel": 5423,
      "ireland": 5424,
      "choice": 5425,
      "liver": 5426,
      "brothers": 5427,
      "join": 5428,
      "murder": 5429,
      "reign": 5430,
      "older": 5431,
      "element": 5432,
      "sport": 5433,
      "steel": 5434,
      "deliv": 5435,
      "proved": 5436,
      "analys": 5437,
      "versions": 5438,
      "library": 5439,
      "##uled": 5440,
      "headquarters": 5441,
      "##zy": 5442,
      "manu": 5443,
      "floor": 5444,
      "il": 5445,
      "dw": 5446,
      "explained": 5447,
      "##oration": 5448,
      "defence": 5449,
      "says": 5450,
      "offer": 5451,
      "ahead": 5452,
      "##erse": 5453,
      "expans": 5454,
      "negot": 5455,
      "##known": 5456,
      "##mans": 5457,
      "bol": 5458,
      "serve": 5459,
      "rainfall": 5460,
      "##ns": 5461,
      "1989": 5462,
      "sens": 5463,
      "alt": 5464,
      "51": 5465,
      "sant": 5466,
      "causing": 5467,
      "comes": 5468,
      "speech": 5469,
      "send": 5470,
      "1943": 5471,
      "victoria": 5472,
      "suit": 5473,
      "charl": 5474,
      "fal": 5475,
      "compr": 5476,
      "require": 5477,
      "catholic": 5478,
      "##ih": 5479,
      "expressed": 5480,
      "##ew": 5481,
      "equipment": 5482,
      "##town": 5483,
      "workers": 5484,
      "article": 5485,
      "roads": 5486,
      "reports": 5487,
      "growth": 5488,
      "##ety": 5489,
      "pap": 5490,
      "entr": 5491,
      "gross": 5492,
      "prominent": 5493,
      "offensive": 5494,
      "branch": 5495,
      "##yer": 5496,
      "drama": 5497,
      "surpr": 5498,
      "advanced": 5499,
      "##ano": 5500,
      "##ancy": 5501,
      "rog": 5502,
      "capture": 5503,
      "identified": 5504,
      "officially": 5505,
      "setting": 5506,
      "husband": 5507,
      "soft": 5508,
      "snow": 5509,
      "interact": 5510,
      "worldwide": 5511,
      "armed": 5512,
      "dur": 5513,
      "pattern": 5514,
      "dani": 5515,
      "manufact": 5516,
      "category": 5517,
      "jul": 5518,
      "##icient": 5519,
      "##ighth": 5520,
      "reserve": 5521,
      "tells": 5522,
      "joint": 5523,
      "heavily": 5524,
      "##ule": 5525,
      "senate": 5526,
      "##bon": 5527,
      "tay": 5528,
      "justice": 5529,
      "matter": 5530,
      "##mark": 5531,
      "surre": 5532,
      "computer": 5533,
      "represented": 5534,
      "escape": 5535,
      "activities": 5536,
      "##iring": 5537,
      "spread": 5538,
      "extra": 5539,
      "pieces": 5540,
      "places": 5541,
      "meanwhile": 5542,
      "adapt": 5543,
      "treatment": 5544,
      "leaves": 5545,
      "clar": 5546,
      "actress": 5547,
      "trees": 5548,
      "leaders": 5549,
      "figures": 5550,
      "avoid": 5551,
      "unf": 5552,
      "fired": 5553,
      "orb": 5554,
      "expedition": 5555,
      "soul": 5556,
      "why": 5557,
      "injury": 5558,
      "believe": 5559,
      "##ube": 5560,
      "toward": 5561,
      "duke": 5562,
      "1940": 5563,
      "mit": 5564,
      "agreement": 5565,
      "1980s": 5566,
      "albert": 5567,
      "supply": 5568,
      "##ds": 5569,
      "##ece": 5570,
      "dutch": 5571,
      "lives": 5572,
      "##ylvania": 5573,
      "##where": 5574,
      "##abeth": 5575,
      "unknown": 5576,
      "illust": 5577,
      "anth": 5578,
      "doing": 5579,
      "casual": 5580,
      "data": 5581,
      "unlike": 5582,
      "barb": 5583,
      "imag": 5584,
      "bart": 5585,
      "eliz": 5586,
      "editor": 5587,
      "laid": 5588,
      "##har": 5589,
      "strike": 5590,
      "golden": 5591,
      "debuted": 5592,
      "##rel": 5593,
      "consisted": 5594,
      "dream": 5595,
      "din": 5596,
      "##acity": 5597,
      "exec": 5598,
      "walls": 5599,
      "##ads": 5600,
      "##emic": 5601,
      "##egr": 5602,
      "mig": 5603,
      "aired": 5604,
      "argued": 5605,
      "##pool": 5606,
      "opin": 5607,
      "##ushed": 5608,
      "stations": 5609,
      "##dy": 5610,
      "watch": 5611,
      "##osen": 5612,
      "typically": 5613,
      "opposition": 5614,
      "motor": 5615,
      "##ears": 5616,
      "severe": 5617,
      "moment": 5618,
      "ric": 5619,
      "reference": 5620,
      "jon": 5621,
      "ta": 5622,
      "homer": 5623,
      "formula": 5624,
      "mounted": 5625,
      "spin": 5626,
      "twice": 5627,
      "1970s": 5628,
      "claims": 5629,
      "affected": 5630,
      "nations": 5631,
      "600": 5632,
      "polish": 5633,
      "description": 5634,
      "actors": 5635,
      "animal": 5636,
      "##bn": 5637,
      "##inson": 5638,
      "##eman": 5639,
      "faced": 5640,
      "industrial": 5641,
      "powers": 5642,
      "##hew": 5643,
      "sher": 5644,
      "store": 5645,
      "supre": 5646,
      "emph": 5647,
      "notable": 5648,
      "challeng": 5649,
      "maintained": 5650,
      "accident": 5651,
      "couple": 5652,
      "technology": 5653,
      "1960s": 5654,
      "trying": 5655,
      "protection": 5656,
      "value": 5657,
      "##hire": 5658,
      "knight": 5659,
      "convers": 5660,
      "fellow": 5661,
      "visited": 5662,
      "##ifying": 5663,
      "orders": 5664,
      "horses": 5665,
      "##worth": 5666,
      "pros": 5667,
      "ba": 5668,
      "criticized": 5669,
      "survey": 5670,
      "assault": 5671,
      "tech": 5672,
      "landing": 5673,
      "delay": 5674,
      "fuel": 5675,
      "som": 5676,
      "carolina": 5677,
      "broken": 5678,
      "holly": 5679,
      "hair": 5680,
      "sail": 5681,
      "fully": 5682,
      "resident": 5683,
      "mul": 5684,
      "53": 5685,
      "growing": 5686,
      "##ala": 5687,
      "label": 5688,
      "##icks": 5689,
      "chosen": 5690,
      "##ockey": 5691,
      "motion": 5692,
      "##ote": 5693,
      "abb": 5694,
      "twel": 5695,
      "cool": 5696,
      "hat": 5697,
      "##intend": 5698,
      "institute": 5699,
      "1987": 5700,
      "solo": 5701,
      "##lines": 5702,
      "cooper": 5703,
      "scottish": 5704,
      "twelve": 5705,
      "##gian": 5706,
      "1988": 5707,
      "criticism": 5708,
      "youth": 5709,
      "producers": 5710,
      "frequently": 5711,
      "gil": 5712,
      "##stone": 5713,
      "##ete": 5714,
      "85": 5715,
      "##lam": 5716,
      "seventh": 5717,
      "bac": 5718,
      "philos": 5719,
      "summ": 5720,
      "condition": 5721,
      "wounded": 5722,
      "md": 5723,
      "looking": 5724,
      "penns": 5725,
      "accompan": 5726,
      "sky": 5727,
      "ce": 5728,
      "vice": 5729,
      "##more": 5730,
      "##uce": 5731,
      "oppos": 5732,
      "##ici": 5733,
      "newspaper": 5734,
      "surrounding": 5735,
      "lands": 5736,
      "billion": 5737,
      "urban": 5738,
      "##rael": 5739,
      "independence": 5740,
      "reinfor": 5741,
      "degree": 5742,
      "chor": 5743,
      "lew": 5744,
      "operated": 5745,
      "composition": 5746,
      "register": 5747,
      "##ordin": 5748,
      "assembly": 5749,
      "nuclear": 5750,
      "champion": 5751,
      "republican": 5752,
      "comic": 5753,
      "##izes": 5754,
      "cinem": 5755,
      "##agn": 5756,
      "##la": 5757,
      "##bi": 5758,
      "serving": 5759,
      "moon": 5760,
      "grew": 5761,
      "##ayer": 5762,
      "dry": 5763,
      "creation": 5764,
      "##ola": 5765,
      "southeast": 5766,
      "bc": 5767,
      "simply": 5768,
      "##rid": 5769,
      "rival": 5770,
      "incident": 5771,
      "follows": 5772,
      "expansion": 5773,
      "vote": 5774,
      "losing": 5775,
      "famous": 5776,
      "tel": 5777,
      "tam": 5778,
      "killing": 5779,
      "##ux": 5780,
      "contained": 5781,
      "risk": 5782,
      "##urb": 5783,
      "newly": 5784,
      "agric": 5785,
      "gh": 5786,
      "##wise": 5787,
      "christmas": 5788,
      "herself": 5789,
      "passes": 5790,
      "oppon": 5791,
      "honour": 5792,
      "andrew": 5793,
      "##yle": 5794,
      "weekly": 5795,
      "54": 5796,
      "experiment": 5797,
      "individuals": 5798,
      "caval": 5799,
      "ends": 5800,
      "##ivity": 5801,
      "normal": 5802,
      "jac": 5803,
      "##wall": 5804,
      "split": 5805,
      "heard": 5806,
      "perfect": 5807,
      "emphas": 5808,
      "##ocked": 5809,
      "attrib": 5810,
      "homes": 5811,
      "aer": 5812,
      "consecutive": 5813,
      "##ucky": 5814,
      "wilson": 5815,
      "##ledge": 5816,
      "##isters": 5817,
      "95": 5818,
      "nav": 5819,
      "##ends": 5820,
      "taylor": 5821,
      "97": 5822,
      "chronic": 5823,
      "crossing": 5824,
      "56": 5825,
      "measure": 5826,
      "cannot": 5827,
      "##jo": 5828,
      "thing": 5829,
      "website": 5830,
      "narrow": 5831,
      "evac": 5832,
      "supporting": 5833,
      "##ram": 5834,
      "##pton": 5835,
      "parall": 5836,
      "1986": 5837,
      "consequ": 5838,
      "chose": 5839,
      "##fully": 5840,
      "elizabeth": 5841,
      "opposed": 5842,
      "note": 5843,
      "perman": 5844,
      "joe": 5845,
      "##ographer": 5846,
      "sequence": 5847,
      "alexander": 5848,
      "historic": 5849,
      "volume": 5850,
      "participated": 5851,
      "agricult": 5852,
      "themes": 5853,
      "famil": 5854,
      "von": 5855,
      "##water": 5856,
      "rise": 5857,
      "wave": 5858,
      "leadership": 5859,
      "rare": 5860,
      "adopted": 5861,
      "##resp": 5862,
      "colonel": 5863,
      "eyes": 5864,
      "opera": 5865,
      "##gend": 5866,
      "eld": 5867,
      "fresh": 5868,
      "capacity": 5869,
      "skin": 5870,
      "abandoned": 5871,
      "disease": 5872,
      "dub": 5873,
      "advant": 5874,
      "##ancing": 5875,
      "arc": 5876,
      "standing": 5877,
      "##rane": 5878,
      "##iled": 5879,
      "democratic": 5880,
      "filmed": 5881,
      "tall": 5882,
      "nic": 5883,
      "defin": 5884,
      "trip": 5885,
      "plants": 5886,
      "egg": 5887,
      "max": 5888,
      "visual": 5889,
      "basis": 5890,
      "straight": 5891,
      "##anda": 5892,
      "negative": 5893,
      "sund": 5894,
      "pennsylvania": 5895,
      "budget": 5896,
      "##born": 5897,
      "deploy": 5898,
      "177": 5899,
      "##greg": 5900,
      "pier": 5901,
      "prompt": 5902,
      "rand": 5903,
      "failure": 5904,
      "dim": 5905,
      "creating": 5906,
      "benef": 5907,
      "gameplay": 5908,
      "mike": 5909,
      "regarded": 5910,
      "possibly": 5911,
      "tank": 5912,
      "column": 5913,
      "##kins": 5914,
      "harry": 5915,
      "treaty": 5916,
      "irish": 5917,
      "##isers": 5918,
      "bodies": 5919,
      "palace": 5920,
      "seat": 5921,
      "##under": 5922,
      "##ko": 5923,
      "try": 5924,
      "distingu": 5925,
      "pin": 5926,
      "canal": 5927,
      "girls": 5928,
      "foundation": 5929,
      "kid": 5930,
      "lady": 5931,
      "##amm": 5932,
      "interchange": 5933,
      "sin": 5934,
      "spain": 5935,
      "domest": 5936,
      "horn": 5937,
      "excl": 5938,
      "legend": 5939,
      "##uses": 5940,
      "lap": 5941,
      "merch": 5942,
      "worth": 5943,
      "gri": 5944,
      "kick": 5945,
      "##illy": 5946,
      "ideas": 5947,
      "zone": 5948,
      "eag": 5949,
      "retired": 5950,
      "advert": 5951,
      "dismiss": 5952,
      "ped": 5953,
      "76": 5954,
      "surrender": 5955,
      "lind": 5956,
      "mist": 5957,
      "tell": 5958,
      "##engt": 5959,
      "extensive": 5960,
      "ridge": 5961,
      "178": 5962,
      "hyp": 5963,
      "lic": 5964,
      "1990s": 5965,
      "##ias": 5966,
      "##azz": 5967,
      "aid": 5968,
      "younger": 5969,
      "nob": 5970,
      "hockey": 5971,
      "roles": 5972,
      "scholars": 5973,
      "explos": 5974,
      "garden": 5975,
      "basket": 5976,
      "dial": 5977,
      "atm": 5978,
      "railroad": 5979,
      "analysis": 5980,
      "classic": 5981,
      "bishop": 5982,
      "hope": 5983,
      "franch": 5984,
      "1939": 5985,
      "##uls": 5986,
      "##set": 5987,
      "sud": 5988,
      "drew": 5989,
      "repeated": 5990,
      "improved": 5991,
      "merc": 5992,
      "achieved": 5993,
      "economy": 5994,
      "israel": 5995,
      "aim": 5996,
      "effective": 5997,
      "##ja": 5998,
      "##aly": 5999,
      "briefly": 6000,
      "glass": 6001,
      "hay": 6002,
      "banks": 6003,
      "lem": 6004,
      "61": 6005,
      "core": 6006,
      "piano": 6007,
      "gate": 6008,
      "chamber": 6009,
      "wed": 6010,
      "unsu": 6011,
      "##orters": 6012,
      "currently": 6013,
      "southwest": 6014,
      "##ato": 6015,
      "household": 6016,
      "necessary": 6017,
      "##iana": 6018,
      "ga": 6019,
      "calc": 6020,
      "vehicles": 6021,
      "arthur": 6022,
      "regional": 6023,
      "granted": 6024,
      "66": 6025,
      "defensive": 6026,
      "gather": 6027,
      "purpose": 6028,
      "##otyp": 6029,
      "1985": 6030,
      "rejected": 6031,
      "sche": 6032,
      "speak": 6033,
      "citizens": 6034,
      "fame": 6035,
      "turns": 6036,
      "caught": 6037,
      "##arked": 6038,
      "sell": 6039,
      "organized": 6040,
      "1968": 6041,
      "braz": 6042,
      "##oma": 6043,
      "recently": 6044,
      "types": 6045,
      "genus": 6046,
      "kilometres": 6047,
      "marine": 6048,
      "province": 6049,
      "atmosp": 6050,
      "receive": 6051,
      "expanded": 6052,
      "secondary": 6053,
      "##lusion": 6054,
      "authorities": 6055,
      "flooding": 6056,
      "commissioned": 6057,
      "fro": 6058,
      "online": 6059,
      "didn": 6060,
      "rhy": 6061,
      "1970": 6062,
      "drop": 6063,
      "##lers": 6064,
      "##het": 6065,
      "ori": 6066,
      "roof": 6067,
      "##iments": 6068,
      "cavalry": 6069,
      "ohio": 6070,
      "##oln": 6071,
      "kir": 6072,
      "##tv": 6073,
      "transform": 6074,
      "families": 6075,
      "successfully": 6076,
      "performing": 6077,
      "letters": 6078,
      "ka": 6079,
      "determined": 6080,
      "freedom": 6081,
      "literature": 6082,
      "describes": 6083,
      "fought": 6084,
      "vac": 6085,
      "ble": 6086,
      "##cel": 6087,
      "agent": 6088,
      "assistant": 6089,
      "tail": 6090,
      "##utation": 6091,
      "##ym": 6092,
      "dram": 6093,
      "safety": 6094,
      "unus": 6095,
      "picture": 6096,
      "##ases": 6097,
      "##iday": 6098,
      "##adelph": 6099,
      "1984": 6100,
      "##uate": 6101,
      "upgr": 6102,
      "800": 6103,
      "##eg": 6104,
      "goes": 6105,
      "custom": 6106,
      "singing": 6107,
      "prefer": 6108,
      "freeway": 6109,
      "##umber": 6110,
      "##illa": 6111,
      "##iate": 6112,
      "acquired": 6113,
      "journey": 6114,
      "ron": 6115,
      "philadelph": 6116,
      "titles": 6117,
      "suggests": 6118,
      "##stream": 6119,
      "commonly": 6120,
      "planning": 6121,
      "gives": 6122,
      "57": 6123,
      "##rich": 6124,
      "centuries": 6125,
      "deck": 6126,
      "revol": 6127,
      "supreme": 6128,
      "##alty": 6129,
      "##ading": 6130,
      "##oted": 6131,
      "spr": 6132,
      "##ifications": 6133,
      "mentioned": 6134,
      "georgia": 6135,
      "distribution": 6136,
      "cambridge": 6137,
      "controlled": 6138,
      "scheduled": 6139,
      "az": 6140,
      "contain": 6141,
      "web": 6142,
      "withdraw": 6143,
      "alternative": 6144,
      "##pi": 6145,
      "120": 6146,
      "myth": 6147,
      "dip": 6148,
      "protect": 6149,
      "philadelphia": 6150,
      "depict": 6151,
      "##och": 6152,
      "ell": 6153,
      "sets": 6154,
      "shooting": 6155,
      "contest": 6156,
      "trains": 6157,
      "cook": 6158,
      "##attle": 6159,
      "##haps": 6160,
      "kel": 6161,
      "chance": 6162,
      "principal": 6163,
      "unique": 6164,
      "reaction": 6165,
      "62": 6166,
      "decre": 6167,
      "virt": 6168,
      "perhaps": 6169,
      "regarding": 6170,
      "graph": 6171,
      "sie": 6172,
      "fix": 6173,
      "wrestling": 6174,
      "1967": 6175,
      "##outs": 6176,
      "finds": 6177,
      "save": 6178,
      "witness": 6179,
      "russia": 6180,
      "tag": 6181,
      "extrem": 6182,
      "integr": 6183,
      "request": 6184,
      "submar": 6185,
      "estate": 6186,
      "##umes": 6187,
      "crime": 6188,
      "rum": 6189,
      "rules": 6190,
      "facilities": 6191,
      "1980": 6192,
      "gill": 6193,
      "demand": 6194,
      "reading": 6195,
      "specim": 6196,
      "arrival": 6197,
      "##aven": 6198,
      "recru": 6199,
      "gain": 6200,
      "scientific": 6201,
      "##amin": 6202,
      "korean": 6203,
      "session": 6204,
      "ss": 6205,
      "ok": 6206,
      "containing": 6207,
      "##shire": 6208,
      "exchange": 6209,
      "publication": 6210,
      "linc": 6211,
      "accompanied": 6212,
      "rub": 6213,
      "rated": 6214,
      "teach": 6215,
      "deter": 6216,
      "lis": 6217,
      "tact": 6218,
      "nintend": 6219,
      "mouth": 6220,
      "locations": 6221,
      "belong": 6222,
      "fighter": 6223,
      "price": 6224,
      "finish": 6225,
      "touchdown": 6226,
      "jenn": 6227,
      "thor": 6228,
      "ceremony": 6229,
      "liverpool": 6230,
      "##inger": 6231,
      "selection": 6232,
      "brid": 6233,
      "boats": 6234,
      "##eck": 6235,
      "hits": 6236,
      "quite": 6237,
      "##agan": 6238,
      "brook": 6239,
      "evening": 6240,
      "nintendo": 6241,
      "moder": 6242,
      "asia": 6243,
      "entirely": 6244,
      "cd": 6245,
      "brand": 6246,
      "mand": 6247,
      "simple": 6248,
      "tab": 6249,
      "##hol": 6250,
      "##aver": 6251,
      "##unk": 6252,
      "columbia": 6253,
      "58": 6254,
      "##etts": 6255,
      "existing": 6256,
      "cloud": 6257,
      "om": 6258,
      "firm": 6259,
      "dedicated": 6260,
      "crowd": 6261,
      "##once": 6262,
      "intensity": 6263,
      "extr": 6264,
      "singap": 6265,
      "resistance": 6266,
      "contributed": 6267,
      "fash": 6268,
      "prote": 6269,
      "legacy": 6270,
      "jewish": 6271,
      "hydro": 6272,
      "remix": 6273,
      "provides": 6274,
      "74": 6275,
      "purchased": 6276,
      "##station": 6277,
      "ax": 6278,
      "casualties": 6279,
      "kings": 6280,
      "adap": 6281,
      "grey": 6282,
      "windows": 6283,
      "1983": 6284,
      "brazil": 6285,
      "page": 6286,
      "resemb": 6287,
      "campus": 6288,
      "throw": 6289,
      "##eless": 6290,
      "##itan": 6291,
      "battery": 6292,
      "##room": 6293,
      "advantage": 6294,
      "whit": 6295,
      "##inity": 6296,
      "carey": 6297,
      "sites": 6298,
      "##ulate": 6299,
      "occupied": 6300,
      "72": 6301,
      "boys": 6302,
      "francisco": 6303,
      "1969": 6304,
      "eighth": 6305,
      "singapore": 6306,
      "bes": 6307,
      "##respond": 6308,
      "correspond": 6309,
      "basketball": 6310,
      "gib": 6311,
      "table": 6312,
      "holding": 6313,
      "1964": 6314,
      "##oses": 6315,
      "lincoln": 6316,
      "##iences": 6317,
      "towns": 6318,
      "##ington": 6319,
      "gulf": 6320,
      "heads": 6321,
      "bron": 6322,
      "promotion": 6323,
      "structures": 6324,
      "trou": 6325,
      "nap": 6326,
      "bright": 6327,
      "gay": 6328,
      "elimin": 6329,
      "miller": 6330,
      "protected": 6331,
      "drawn": 6332,
      "regions": 6333,
      "##hens": 6334,
      "resour": 6335,
      "coastal": 6336,
      "1914": 6337,
      "conqu": 6338,
      "hms": 6339,
      "##kes": 6340,
      "receiving": 6341,
      "disney": 6342,
      "closely": 6343,
      "tenn": 6344,
      "playstation": 6345,
      "cars": 6346,
      "##fort": 6347,
      "1918": 6348,
      "code": 6349,
      "##laim": 6350,
      "laws": 6351,
      "judge": 6352,
      "##onic": 6353,
      "fit": 6354,
      "##itled": 6355,
      "opportunity": 6356,
      "turning": 6357,
      "##ompl": 6358,
      "##rons": 6359,
      "generation": 6360,
      "1971": 6361,
      "59": 6362,
      "##rig": 6363,
      "1982": 6364,
      "lewis": 6365,
      "##iny": 6366,
      "alle": 6367,
      "##iro": 6368,
      "calls": 6369,
      "##usc": 6370,
      "consists": 6371,
      "roughly": 6372,
      "##fri": 6373,
      "1972": 6374,
      "1979": 6375,
      "1966": 6376,
      "steve": 6377,
      "reserv": 6378,
      "symbol": 6379,
      "defined": 6380,
      "corner": 6381,
      "acts": 6382,
      "grade": 6383,
      "anderson": 6384,
      "byz": 6385,
      "brian": 6386,
      "jr": 6387,
      "##burgh": 6388,
      "##han": 6389,
      "sha": 6390,
      "strengt": 6391,
      "##wick": 6392,
      "experienced": 6393,
      "anything": 6394,
      "olympic": 6395,
      "losses": 6396,
      "rolling": 6397,
      "fashion": 6398,
      "task": 6399,
      "heat": 6400,
      "##garian": 6401,
      "##eb": 6402,
      "99": 6403,
      "##ware": 6404,
      "protest": 6405,
      "hem": 6406,
      "##ocated": 6407,
      "byzant": 6408,
      "##box": 6409,
      "patrol": 6410,
      "flu": 6411,
      "1965": 6412,
      "bands": 6413,
      "focused": 6414,
      "retire": 6415,
      "##awa": 6416,
      "religion": 6417,
      "daniel": 6418,
      "viewed": 6419,
      "engaged": 6420,
      "hind": 6421,
      "##ua": 6422,
      "politics": 6423,
      "intelligence": 6424,
      "providing": 6425,
      "armour": 6426,
      "relief": 6427,
      "developing": 6428,
      "hip": 6429,
      "1975": 6430,
      "3rd": 6431,
      "map": 6432,
      "nhl": 6433,
      "##ella": 6434,
      "##ping": 6435,
      "phase": 6436,
      "oak": 6437,
      "uncle": 6438,
      "##mann": 6439,
      "rapidly": 6440,
      "semi": 6441,
      "investigation": 6442,
      "shared": 6443,
      "bottom": 6444,
      "wond": 6445,
      "shall": 6446,
      "hired": 6447,
      "males": 6448,
      "tow": 6449,
      "walter": 6450,
      "enl": 6451,
      "gram": 6452,
      "instruct": 6453,
      "hollywood": 6454,
      "temperature": 6455,
      "highlight": 6456,
      "credits": 6457,
      "germans": 6458,
      "solid": 6459,
      "rene": 6460,
      "##pa": 6461,
      "mountains": 6462,
      "introduction": 6463,
      "everything": 6464,
      "folk": 6465,
      "faith": 6466,
      "launch": 6467,
      "missing": 6468,
      "flat": 6469,
      "##oster": 6470,
      "guy": 6471,
      "recognized": 6472,
      "junior": 6473,
      "equal": 6474,
      "63": 6475,
      "exact": 6476,
      "18th": 6477,
      "1974": 6478,
      "hart": 6479,
      "painting": 6480,
      "##ifically": 6481,
      "cou": 6482,
      "rome": 6483,
      "davis": 6484,
      "vent": 6485,
      "##rant": 6486,
      "belief": 6487,
      "gam": 6488,
      "##opher": 6489,
      "##eper": 6490,
      "77": 6491,
      "1973": 6492,
      "hell": 6493,
      "##bound": 6494,
      "73": 6495,
      "isol": 6496,
      "lb": 6497,
      "ans": 6498,
      "getting": 6499,
      "gord": 6500,
      "##heim": 6501,
      "falls": 6502,
      "##iot": 6503,
      "substant": 6504,
      "shape": 6505,
      "typh": 6506,
      "prepared": 6507,
      "descend": 6508,
      "jean": 6509,
      "tick": 6510,
      "franchise": 6511,
      "##ilton": 6512,
      "knew": 6513,
      "naz": 6514,
      "serb": 6515,
      "opinion": 6516,
      "domestic": 6517,
      "cens": 6518,
      "1976": 6519,
      "sab": 6520,
      "thin": 6521,
      "significantly": 6522,
      "global": 6523,
      "##mouth": 6524,
      "projects": 6525,
      "intersection": 6526,
      "approved": 6527,
      "sort": 6528,
      "auth": 6529,
      "literary": 6530,
      "lit": 6531,
      "beyonce": 6532,
      "adding": 6533,
      "##ek": 6534,
      "##eed": 6535,
      "philipp": 6536,
      "penins": 6537,
      "##eals": 6538,
      "confeder": 6539,
      "##een": 6540,
      "##iel": 6541,
      "han": 6542,
      "##wart": 6543,
      "knowledge": 6544,
      "pret": 6545,
      "reasons": 6546,
      "wheel": 6547,
      "vic": 6548,
      "hung": 6549,
      "wings": 6550,
      "##ender": 6551,
      "##erted": 6552,
      "cris": 6553,
      "##ographic": 6554,
      "unsuccess": 6555,
      "raid": 6556,
      "##ishes": 6557,
      "##ologist": 6558,
      "challenge": 6559,
      "##iat": 6560,
      "playoff": 6561,
      "##apped": 6562,
      "ward": 6563,
      "poem": 6564,
      "##iful": 6565,
      "250": 6566,
      "##ira": 6567,
      "##sey": 6568,
      "syd": 6569,
      "autom": 6570,
      "archae": 6571,
      "musl": 6572,
      "67": 6573,
      "bull": 6574,
      "shaped": 6575,
      "unl": 6576,
      "views": 6577,
      "rar": 6578,
      "stages": 6579,
      "settlement": 6580,
      "cabin": 6581,
      "##achus": 6582,
      "escort": 6583,
      "##lav": 6584,
      "evolution": 6585,
      "##ador": 6586,
      "operating": 6587,
      "bern": 6588,
      "lun": 6589,
      "exerc": 6590,
      "storyline": 6591,
      "parallel": 6592,
      "cra": 6593,
      "sed": 6594,
      "##asty": 6595,
      "ari": 6596,
      "shut": 6597,
      "##unte": 6598,
      "labour": 6599,
      "nas": 6600,
      "##break": 6601,
      "internal": 6602,
      "renamed": 6603,
      "##istan": 6604,
      "scul": 6605,
      "reputation": 6606,
      "rebu": 6607,
      "thirty": 6608,
      "watched": 6609,
      "neverthel": 6610,
      "employed": 6611,
      "baby": 6612,
      "nevertheless": 6613,
      "proceed": 6614,
      "volunte": 6615,
      "allies": 6616,
      "popularity": 6617,
      "fine": 6618,
      "##zen": 6619,
      "limit": 6620,
      "injured": 6621,
      "##eral": 6622,
      "professor": 6623,
      "humans": 6624,
      "paint": 6625,
      "guide": 6626,
      "females": 6627,
      "##tar": 6628,
      "jam": 6629,
      "ross": 6630,
      "neut": 6631,
      "blues": 6632,
      "cape": 6633,
      "increasingly": 6634,
      "cited": 6635,
      "kentucky": 6636,
      "82": 6637,
      "96": 6638,
      "headed": 6639,
      "torn": 6640,
      "68": 6641,
      "neither": 6642,
      "1946": 6643,
      "consc": 6644,
      "models": 6645,
      "wealth": 6646,
      "declined": 6647,
      "1981": 6648,
      "hills": 6649,
      "finding": 6650,
      "connected": 6651,
      "sculpt": 6652,
      "##antly": 6653,
      "collected": 6654,
      "violence": 6655,
      "las": 6656,
      "details": 6657,
      "##aka": 6658,
      "##hi": 6659,
      "##mes": 6660,
      "existence": 6661,
      "converted": 6662,
      "grav": 6663,
      "depth": 6664,
      "sustained": 6665,
      "enjoyed": 6666,
      "1950s": 6667,
      "##onym": 6668,
      "##inum": 6669,
      "learned": 6670,
      "controversy": 6671,
      "norway": 6672,
      "entry": 6673,
      "uns": 6674,
      "consum": 6675,
      "volcan": 6676,
      "connect": 6677,
      "ken": 6678,
      "1917": 6679,
      "impl": 6680,
      "sad": 6681,
      "##ients": 6682,
      "massachus": 6683,
      "##iger": 6684,
      "olympics": 6685,
      "87": 6686,
      "outer": 6687,
      "championships": 6688,
      "cad": 6689,
      "##eds": 6690,
      "applied": 6691,
      "##istol": 6692,
      "synt": 6693,
      "massachusetts": 6694,
      "crimin": 6695,
      "camera": 6696,
      "##iform": 6697,
      "allows": 6698,
      "lev": 6699,
      "premier": 6700,
      "##ceived": 6701,
      "##rif": 6702,
      "nest": 6703,
      "gang": 6704,
      "teacher": 6705,
      "swim": 6706,
      "ways": 6707,
      "cells": 6708,
      "##ava": 6709,
      "clark": 6710,
      "approached": 6711,
      "entrance": 6712,
      "160": 6713,
      "arsen": 6714,
      "##osis": 6715,
      "vel": 6716,
      "interp": 6717,
      "decade": 6718,
      "carrying": 6719,
      "easily": 6720,
      "designs": 6721,
      "##ropri": 6722,
      "tests": 6723,
      "loy": 6724,
      "responded": 6725,
      "gray": 6726,
      "confron": 6727,
      "foss": 6728,
      "extension": 6729,
      "downlo": 6730,
      "##atures": 6731,
      "##roll": 6732,
      "1948": 6733,
      "discovery": 6734,
      "technical": 6735,
      "hang": 6736,
      "tu": 6737,
      "##ali": 6738,
      "##onia": 6739,
      "bush": 6740,
      "pitch": 6741,
      "chairman": 6742,
      "buried": 6743,
      "duty": 6744,
      "700": 6745,
      "hug": 6746,
      "##rec": 6747,
      "##ima": 6748,
      "convoy": 6749,
      "1960": 6750,
      "gradually": 6751,
      "##ati": 6752,
      "mayor": 6753,
      "succeeded": 6754,
      "##aine": 6755,
      "sections": 6756,
      "69": 6757,
      "specifically": 6758,
      "##psons": 6759,
      "breeding": 6760,
      "hull": 6761,
      "acres": 6762,
      "ts": 6763,
      "showing": 6764,
      "programs": 6765,
      "simpsons": 6766,
      "raw": 6767,
      "micro": 6768,
      "astron": 6769,
      "##ignment": 6770,
      "municip": 6771,
      "sons": 6772,
      "raf": 6773,
      "door": 6774,
      "jay": 6775,
      "scar": 6776,
      "prize": 6777,
      "##esc": 6778,
      "##itors": 6779,
      "install": 6780,
      "91": 6781,
      "stret": 6782,
      "mode": 6783,
      "sax": 6784,
      "address": 6785,
      "items": 6786,
      "prisoners": 6787,
      "exclus": 6788,
      "plac": 6789,
      "1978": 6790,
      "purs": 6791,
      "pear": 6792,
      "arranged": 6793,
      "shop": 6794,
      "78": 6795,
      "none": 6796,
      "credited": 6797,
      "gone": 6798,
      "util": 6799,
      "genre": 6800,
      "triple": 6801,
      "##ogen": 6802,
      "maria": 6803,
      "##ctions": 6804,
      "similarly": 6805,
      "vietnam": 6806,
      "statement": 6807,
      "teen": 6808,
      "weakened": 6809,
      "seems": 6810,
      "winner": 6811,
      "producing": 6812,
      "additionally": 6813,
      "improve": 6814,
      "earliest": 6815,
      "parties": 6816,
      "cryst": 6817,
      "landfall": 6818,
      "leon": 6819,
      "bath": 6820,
      "##inal": 6821,
      "bear": 6822,
      "ot": 6823,
      "##come": 6824,
      "rural": 6825,
      "warning": 6826,
      "routes": 6827,
      "presidential": 6828,
      "1915": 6829,
      "threatened": 6830,
      "divisions": 6831,
      "jes": 6832,
      "candidate": 6833,
      "engineer": 6834,
      "fields": 6835,
      "##put": 6836,
      "adam": 6837,
      "retained": 6838,
      "sounds": 6839,
      "ottoman": 6840,
      "94": 6841,
      "inner": 6842,
      "##entions": 6843,
      "combination": 6844,
      "sharp": 6845,
      "sydney": 6846,
      "##inary": 6847,
      "lasted": 6848,
      "products": 6849,
      "spok": 6850,
      "1977": 6851,
      "poland": 6852,
      "hear": 6853,
      "1950": 6854,
      "brain": 6855,
      "moore": 6856,
      "kim": 6857,
      "mtv": 6858,
      "##rations": 6859,
      "jur": 6860,
      "maryland": 6861,
      "98": 6862,
      "lam": 6863,
      "ones": 6864,
      "##issance": 6865,
      "##va": 6866,
      "shr": 6867,
      "##inking": 6868,
      "replace": 6869,
      "kur": 6870,
      "supplies": 6871,
      "81": 6872,
      "##taining": 6873,
      "dress": 6874,
      "lock": 6875,
      "chemical": 6876,
      "adapted": 6877,
      "basic": 6878,
      "interior": 6879,
      "evil": 6880,
      "animated": 6881,
      "frag": 6882,
      "downtown": 6883,
      "repair": 6884,
      "##arm": 6885,
      "afterwards": 6886,
      "##imet": 6887,
      "engines": 6888,
      "grounds": 6889,
      "delivered": 6890,
      "peninsula": 6891,
      "inspir": 6892,
      "##itage": 6893,
      "tra": 6894,
      "speaking": 6895,
      "1963": 6896,
      "agency": 6897,
      "cul": 6898,
      "dele": 6899,
      "##rest": 6900,
      "filled": 6901,
      "maintain": 6902,
      "message": 6903,
      "surviv": 6904,
      "rhodes": 6905,
      "crash": 6906,
      "##str": 6907,
      "magic": 6908,
      "equival": 6909,
      "stopped": 6910,
      "entitled": 6911,
      "permanent": 6912,
      "affairs": 6913,
      "architecture": 6914,
      "cow": 6915,
      "##rence": 6916,
      "##itch": 6917,
      "1916": 6918,
      "indicated": 6919,
      "supporters": 6920,
      "clean": 6921,
      "climate": 6922,
      "extremely": 6923,
      "wides": 6924,
      "##inton": 6925,
      "##rets": 6926,
      "##izations": 6927,
      "engineering": 6928,
      "71": 6929,
      "deaths": 6930,
      "##aud": 6931,
      "##leton": 6932,
      "greg": 6933,
      "causes": 6934,
      "##nic": 6935,
      "##wa": 6936,
      "diamond": 6937,
      "##ushing": 6938,
      "fruit": 6939,
      "mine": 6940,
      "alien": 6941,
      "buff": 6942,
      "drug": 6943,
      "89": 6944,
      "secure": 6945,
      "importance": 6946,
      "proposal": 6947,
      "restaur": 6948,
      "poly": 6949,
      "##apes": 6950,
      "returns": 6951,
      "##bl": 6952,
      "ak": 6953,
      "mulder": 6954,
      "gordon": 6955,
      "mars": 6956,
      "eric": 6957,
      "##emies": 6958,
      "deleg": 6959,
      "bos": 6960,
      "spons": 6961,
      "acid": 6962,
      "ira": 6963,
      "ratings": 6964,
      "##othes": 6965,
      "typhoon": 6966,
      "##math": 6967,
      "##ela": 6968,
      "knots": 6969,
      "streets": 6970,
      "composer": 6971,
      "##ropol": 6972,
      "implement": 6973,
      "1919": 6974,
      "mans": 6975,
      "1962": 6976,
      "ches": 6977,
      "pig": 6978,
      "##book": 6979,
      "tanks": 6980,
      "##iversary": 6981,
      "survived": 6982,
      "classical": 6983,
      "##aling": 6984,
      "aftermath": 6985,
      "##hr": 6986,
      "kat": 6987,
      "na": 6988,
      "describing": 6989,
      "88": 6990,
      "compon": 6991,
      "references": 6992,
      "rab": 6993,
      "writes": 6994,
      "##bourne": 6995,
      "convin": 6996,
      "giant": 6997,
      "classification": 6998,
      "bought": 6999,
      "alf": 7000,
      "concerns": 7001,
      "images": 7002,
      "songwrit": 7003,
      "holy": 7004,
      "##time": 7005,
      "##inois": 7006,
      "flo": 7007,
      "1938": 7008,
      "ruled": 7009,
      "someone": 7010,
      "medie": 7011,
      "typical": 7012,
      "sale": 7013,
      "##eton": 7014,
      "entering": 7015,
      "rivers": 7016,
      "##omic": 7017,
      "armor": 7018,
      "environmental": 7019,
      "remember": 7020,
      "studied": 7021,
      "arrested": 7022,
      "decline": 7023,
      "portrayed": 7024,
      "jane": 7025,
      "##entially": 7026,
      "sor": 7027,
      "preced": 7028,
      "cruiser": 7029,
      "vul": 7030,
      "voted": 7031,
      "retreat": 7032,
      "universe": 7033,
      "reduce": 7034,
      "##met": 7035,
      "recalled": 7036,
      "mah": 7037,
      "eleven": 7038,
      "nel": 7039,
      "ago": 7040,
      "intention": 7041,
      "bang": 7042,
      "purchase": 7043,
      "corporation": 7044,
      "siege": 7045,
      "79": 7046,
      "simon": 7047,
      "##ansas": 7048,
      "actual": 7049,
      "capable": 7050,
      "##adow": 7051,
      "feeling": 7052,
      "medieval": 7053,
      "correct": 7054,
      "subs": 7055,
      "academic": 7056,
      "##know": 7057,
      "alliance": 7058,
      "owner": 7059,
      "##gers": 7060,
      "##aki": 7061,
      "objects": 7062,
      "nomination": 7063,
      "colonial": 7064,
      "liberal": 7065,
      "pav": 7066,
      "recognition": 7067,
      "sessions": 7068,
      "##po": 7069,
      "driving": 7070,
      "chapter": 7071,
      "kong": 7072,
      "equipped": 7073,
      "thousands": 7074,
      "identity": 7075,
      "offers": 7076,
      "hunting": 7077,
      "funds": 7078,
      "historians": 7079,
      "camer": 7080,
      "##otic": 7081,
      "##una": 7082,
      "175": 7083,
      "passage": 7084,
      "princess": 7085,
      "noting": 7086,
      "concerned": 7087,
      "connection": 7088,
      "##oir": 7089,
      "anniversary": 7090,
      "finals": 7091,
      "subt": 7092,
      "1956": 7093,
      "##eline": 7094,
      "meters": 7095,
      "decor": 7096,
      "1930s": 7097,
      "decades": 7098,
      "debate": 7099,
      "crossed": 7100,
      "consisting": 7101,
      "tony": 7102,
      "##icide": 7103,
      "undert": 7104,
      "recommended": 7105,
      "admitted": 7106,
      "##cer": 7107,
      "pip": 7108,
      "alan": 7109,
      "programme": 7110,
      "thunder": 7111,
      "##encies": 7112,
      "interested": 7113,
      "dipl": 7114,
      "##right": 7115,
      "invited": 7116,
      "##ropical": 7117,
      "92": 7118,
      "arsenal": 7119,
      "sight": 7120,
      "wel": 7121,
      "installed": 7122,
      "dougl": 7123,
      "##eller": 7124,
      "adams": 7125,
      "breaking": 7126,
      "considerable": 7127,
      "quant": 7128,
      "pound": 7129,
      "##iques": 7130,
      "starts": 7131,
      "universal": 7132,
      "jord": 7133,
      "##aken": 7134,
      "##ipping": 7135,
      "##ingly": 7136,
      "warm": 7137,
      "monument": 7138,
      "##oked": 7139,
      "establishment": 7140,
      "##eston": 7141,
      "courts": 7142,
      "1936": 7143,
      "dates": 7144,
      "colony": 7145,
      "eat": 7146,
      "sequel": 7147,
      "##aked": 7148,
      "hamilton": 7149,
      "93": 7150,
      "diet": 7151,
      "veter": 7152,
      "enemies": 7153,
      "##wich": 7154,
      "manner": 7155,
      "styles": 7156,
      "##acks": 7157,
      "charged": 7158,
      "improv": 7159,
      "130": 7160,
      "duties": 7161,
      "remainder": 7162,
      "##ranean": 7163,
      "84": 7164,
      "##pread": 7165,
      "##heas": 7166,
      "##cement": 7167,
      "utc": 7168,
      "truth": 7169,
      "alleg": 7170,
      "jump": 7171,
      "widespread": 7172,
      "shield": 7173,
      "negoti": 7174,
      "##pe": 7175,
      "ready": 7176,
      "##chers": 7177,
      "communist": 7178,
      "1920": 7179,
      "promote": 7180,
      "pad": 7181,
      "fred": 7182,
      "pictures": 7183,
      "cos": 7184,
      "conservative": 7185,
      "marc": 7186,
      "salt": 7187,
      "##osaurus": 7188,
      "bure": 7189,
      "##ilation": 7190,
      "1961": 7191,
      "nether": 7192,
      "##zer": 7193,
      "indones": 7194,
      "bid": 7195,
      "continuing": 7196,
      "thro": 7197,
      "slowly": 7198,
      "shore": 7199,
      "##aham": 7200,
      "argent": 7201,
      "departure": 7202,
      "aspects": 7203,
      "behavior": 7204,
      "occasionally": 7205,
      "##mus": 7206,
      "classes": 7207,
      "transition": 7208,
      "nba": 7209,
      "credit": 7210,
      "wwe": 7211,
      "myst": 7212,
      "electronic": 7213,
      "animation": 7214,
      "##iling": 7215,
      "1953": 7216,
      "chapel": 7217,
      "ko": 7218,
      "beautiful": 7219,
      "resources": 7220,
      "romantic": 7221,
      "plate": 7222,
      "hitler": 7223,
      "destruction": 7224,
      "happy": 7225,
      "orchestra": 7226,
      "kennedy": 7227,
      "rhyth": 7228,
      "hou": 7229,
      "wearing": 7230,
      "posted": 7231,
      "turk": 7232,
      "emergency": 7233,
      "##akers": 7234,
      "acclaim": 7235,
      "sunday": 7236,
      "howard": 7237,
      "transportation": 7238,
      "assistance": 7239,
      "disappoint": 7240,
      "scout": 7241,
      "treas": 7242,
      "pure": 7243,
      "##oli": 7244,
      "sweet": 7245,
      "senator": 7246,
      "superior": 7247,
      "##atch": 7248,
      "ride": 7249,
      "indiana": 7250,
      "carbon": 7251,
      "formal": 7252,
      "vessels": 7253,
      "##ager": 7254,
      "##uous": 7255,
      "occurs": 7256,
      "##athan": 7257,
      "##ashed": 7258,
      "accur": 7259,
      "##hetic": 7260,
      "1930": 7261,
      "certified": 7262,
      "norwe": 7263,
      "pleas": 7264,
      "dated": 7265,
      "income": 7266,
      "memory": 7267,
      "populations": 7268,
      "scully": 7269,
      "attached": 7270,
      "17th": 7271,
      "1947": 7272,
      "medic": 7273,
      "##icit": 7274,
      "mathem": 7275,
      "ancest": 7276,
      "properties": 7277,
      "##regon": 7278,
      "demol": 7279,
      "chorus": 7280,
      "cant": 7281,
      "86": 7282,
      "passengers": 7283,
      "##ensions": 7284,
      "##ovic": 7285,
      "1958": 7286,
      "dean": 7287,
      "conservation": 7288,
      "ryan": 7289,
      "shots": 7290,
      "equivalent": 7291,
      "desert": 7292,
      "portug": 7293,
      "amend": 7294,
      "oldest": 7295,
      "involving": 7296,
      "terminus": 7297,
      "##ione": 7298,
      "rig": 7299,
      "circum": 7300,
      "##oard": 7301,
      "heritage": 7302,
      "##aware": 7303,
      "acknow": 7304,
      "tunnel": 7305,
      "##ophy": 7306,
      "##after": 7307,
      "oregon": 7308,
      "1957": 7309,
      "adventure": 7310,
      "expand": 7311,
      "reun": 7312,
      "dor": 7313,
      "barr": 7314,
      "settled": 7315,
      "catch": 7316,
      "##uing": 7317,
      "##rus": 7318,
      "##veland": 7319,
      "obtained": 7320,
      "wins": 7321,
      "sleep": 7322,
      "pink": 7323,
      "1937": 7324,
      "##icate": 7325,
      "bombard": 7326,
      "junction": 7327,
      "fisher": 7328,
      "rescue": 7329,
      "dynasty": 7330,
      "accused": 7331,
      "authors": 7332,
      "finishing": 7333,
      "charges": 7334,
      "worst": 7335,
      "derived": 7336,
      "ninth": 7337,
      "##agues": 7338,
      "collect": 7339,
      "incorporated": 7340,
      "##anian": 7341,
      "##ivals": 7342,
      "mediter": 7343,
      "reviewers": 7344,
      "favorite": 7345,
      "inher": 7346,
      "douglas": 7347,
      "circuit": 7348,
      "##orney": 7349,
      "lenn": 7350,
      "replacement": 7351,
      "bou": 7352,
      "belt": 7353,
      "crisis": 7354,
      "cleveland": 7355,
      "##heastern": 7356,
      "illinois": 7357,
      "navig": 7358,
      "committed": 7359,
      "hosted": 7360,
      "missions": 7361,
      "kit": 7362,
      "ker": 7363,
      "prey": 7364,
      "sword": 7365,
      "moves": 7366,
      "##etime": 7367,
      "segment": 7368,
      "4th": 7369,
      "##bar": 7370,
      "rebell": 7371,
      "bringing": 7372,
      "rug": 7373,
      "##ables": 7374,
      "vehicle": 7375,
      "grass": 7376,
      "shear": 7377,
      "supposed": 7378,
      "audio": 7379,
      "110": 7380,
      "andy": 7381,
      "pope": 7382,
      "assumed": 7383,
      "denied": 7384,
      "1959": 7385,
      "interpret": 7386,
      "stanley": 7387,
      "##western": 7388,
      "circulation": 7389,
      "rooms": 7390,
      "##oes": 7391,
      "##ommod": 7392,
      "clubs": 7393,
      "recre": 7394,
      "representatives": 7395,
      "unusual": 7396,
      "premiere": 7397,
      "##wan": 7398,
      "dens": 7399,
      "theater": 7400,
      "mediterranean": 7401,
      "fictional": 7402,
      "roger": 7403,
      "musicians": 7404,
      "transm": 7405,
      "commanded": 7406,
      "##uge": 7407,
      "deem": 7408,
      "kevin": 7409,
      "lanc": 7410,
      "strongly": 7411,
      "anton": 7412,
      "seeing": 7413,
      "beatles": 7414,
      "##agonist": 7415,
      "mes": 7416,
      "##ruption": 7417,
      "outstanding": 7418,
      "begun": 7419,
      "intercept": 7420,
      "deput": 7421,
      "completion": 7422,
      "bruce": 7423,
      "surviving": 7424,
      "##ooth": 7425,
      "gust": 7426,
      "characteristics": 7427,
      "##suit": 7428,
      "meg": 7429,
      "consult": 7430,
      "1955": 7431,
      "solar": 7432,
      "neighbor": 7433,
      "rif": 7434,
      "bristol": 7435,
      "1954": 7436,
      "materials": 7437,
      "cathed": 7438,
      "reality": 7439,
      "mexican": 7440,
      "##lee": 7441,
      "isbn": 7442,
      "norwegian": 7443,
      "alleged": 7444,
      "persu": 7445,
      "attorney": 7446,
      "monarch": 7447,
      "costs": 7448,
      "desire": 7449,
      "exception": 7450,
      "wickets": 7451,
      "tied": 7452,
      "possibility": 7453,
      "consp": 7454,
      "methods": 7455,
      "sailed": 7456,
      "responsibility": 7457,
      "##borne": 7458,
      "craft": 7459,
      "fu": 7460,
      "haz": 7461,
      "vision": 7462,
      "philip": 7463,
      "reconst": 7464,
      "##itable": 7465,
      "praise": 7466,
      "everyone": 7467,
      "passenger": 7468,
      "ku": 7469,
      "##works": 7470,
      "driven": 7471,
      "ford": 7472,
      "##ien": 7473,
      "buy": 7474,
      "opposite": 7475,
      "##friend": 7476,
      "carrier": 7477,
      "differences": 7478,
      "cem": 7479,
      "##state": 7480,
      "representative": 7481,
      "missed": 7482,
      "atmosphere": 7483,
      "pel": 7484,
      "scheme": 7485,
      "habitat": 7486,
      "lisa": 7487,
      "wet": 7488,
      "korea": 7489,
      "##ucks": 7490,
      "##weight": 7491,
      "thereafter": 7492,
      "dragon": 7493,
      "voy": 7494,
      "vary": 7495,
      "recovered": 7496,
      "otherwise": 7497,
      "massive": 7498,
      "##burn": 7499,
      "##ji": 7500,
      "orange": 7501,
      "##ules": 7502,
      "##char": 7503,
      "obl": 7504,
      "##erged": 7505,
      "gor": 7506,
      "throne": 7507,
      "politic": 7508,
      "##onto": 7509,
      "funding": 7510,
      "wrong": 7511,
      "nich": 7512,
      "platinum": 7513,
      "ceas": 7514,
      "##ami": 7515,
      "strategy": 7516,
      "sid": 7517,
      "attributed": 7518,
      "83": 7519,
      "##da": 7520,
      "shif": 7521,
      "warri": 7522,
      "phill": 7523,
      "serves": 7524,
      "##anth": 7525,
      "stayed": 7526,
      "##iant": 7527,
      "emerged": 7528,
      "retirement": 7529,
      "twin": 7530,
      "1952": 7531,
      "effectively": 7532,
      "communities": 7533,
      "morris": 7534,
      "predec": 7535,
      "classified": 7536,
      "##alf": 7537,
      "punk": 7538,
      "outbreak": 7539,
      "township": 7540,
      "ministry": 7541,
      "cancer": 7542,
      "##organ": 7543,
      "weapon": 7544,
      "adults": 7545,
      "aboard": 7546,
      "##eted": 7547,
      "robinson": 7548,
      "##aza": 7549,
      "accommod": 7550,
      "morgan": 7551,
      "##opes": 7552,
      "mobile": 7553,
      "##elsh": 7554,
      "regularly": 7555,
      "crosses": 7556,
      "norman": 7557,
      "dissip": 7558,
      "elections": 7559,
      "documentary": 7560,
      "wonder": 7561,
      "nelson": 7562,
      "accounts": 7563,
      "partn": 7564,
      "mck": 7565,
      "##bell": 7566,
      "##arian": 7567,
      "hawai": 7568,
      "##riers": 7569,
      "underground": 7570,
      "1933": 7571,
      "circle": 7572,
      "falling": 7573,
      "strengthen": 7574,
      "expect": 7575,
      "satis": 7576,
      "lies": 7577,
      "stead": 7578,
      "enterpr": 7579,
      "attracted": 7580,
      "##enses": 7581,
      "176": 7582,
      "bag": 7583,
      "illeg": 7584,
      "inspiration": 7585,
      "crop": 7586,
      "stood": 7587,
      "##rett": 7588,
      "submarine": 7589,
      "forming": 7590,
      "trials": 7591,
      "##isms": 7592,
      "dal": 7593,
      "mint": 7594,
      "##ersed": 7595,
      "##oslav": 7596,
      "factor": 7597,
      "##aug": 7598,
      "races": 7599,
      "racing": 7600,
      "criminal": 7601,
      "angle": 7602,
      "commem": 7603,
      "lith": 7604,
      "parks": 7605,
      "movements": 7606,
      "renew": 7607,
      "##pective": 7608,
      "advis": 7609,
      "##rupted": 7610,
      "vert": 7611,
      "lyn": 7612,
      "injuries": 7613,
      "votes": 7614,
      "battleships": 7615,
      "pull": 7616,
      "lut": 7617,
      "batting": 7618,
      "immig": 7619,
      "##pping": 7620,
      "needs": 7621,
      "raise": 7622,
      "1910": 7623,
      "1935": 7624,
      "separated": 7625,
      "sweden": 7626,
      "ech": 7627,
      "##oking": 7628,
      "patrick": 7629,
      "scr": 7630,
      "wy": 7631,
      "relative": 7632,
      "symph": 7633,
      "##ugh": 7634,
      "allen": 7635,
      "garrison": 7636,
      "1949": 7637,
      "photograph": 7638,
      "chain": 7639,
      "sudden": 7640,
      "nom": 7641,
      "shark": 7642,
      "cu": 7643,
      "##uting": 7644,
      "publisher": 7645,
      "1951": 7646,
      "earn": 7647,
      "welsh": 7648,
      "##lets": 7649,
      "##ito": 7650,
      "##idden": 7651,
      "temporary": 7652,
      "queens": 7653,
      "dod": 7654,
      "lor": 7655,
      "remn": 7656,
      "flank": 7657,
      "difficulty": 7658,
      "distinguished": 7659,
      "##eness": 7660,
      "partner": 7661,
      "plane": 7662,
      "seemed": 7663,
      "soph": 7664,
      "ports": 7665,
      "uss": 7666,
      "requested": 7667,
      "delayed": 7668,
      "##teenth": 7669,
      "toronto": 7670,
      "facility": 7671,
      "rud": 7672,
      "ah": 7673,
      "enth": 7674,
      "restored": 7675,
      "matthew": 7676,
      "surrounded": 7677,
      "elder": 7678,
      "eggs": 7679,
      "gets": 7680,
      "standards": 7681,
      "13th": 7682,
      "pir": 7683,
      "##rell": 7684,
      "byzantine": 7685,
      "metropol": 7686,
      "harm": 7687,
      "hoped": 7688,
      "##oz": 7689,
      "arn": 7690,
      "##imate": 7691,
      "##war": 7692,
      "claiming": 7693,
      "elsewhere": 7694,
      "##ran": 7695,
      "bridges": 7696,
      "netherlands": 7697,
      "toll": 7698,
      "amaz": 7699,
      "childhood": 7700,
      "##ogy": 7701,
      "convection": 7702,
      "penalty": 7703,
      "tub": 7704,
      "16th": 7705,
      "hut": 7706,
      "shir": 7707,
      "##yard": 7708,
      "reviewer": 7709,
      "murd": 7710,
      "##abil": 7711,
      "divers": 7712,
      "frame": 7713,
      "##oyd": 7714,
      "temperatures": 7715,
      "##bing": 7716,
      "internet": 7717,
      "meets": 7718,
      "ages": 7719,
      "stands": 7720,
      "kiss": 7721,
      "convinced": 7722,
      "examples": 7723,
      "jordan": 7724,
      "iraq": 7725,
      "greatly": 7726,
      "cathedral": 7727,
      "mete": 7728,
      "jews": 7729,
      "moderate": 7730,
      "jacob": 7731,
      "publishing": 7732,
      "jazz": 7733,
      "wolf": 7734,
      "##real": 7735,
      "##rog": 7736,
      "dangerous": 7737,
      "involvement": 7738,
      "##urr": 7739,
      "##abled": 7740,
      "cycle": 7741,
      "painted": 7742,
      "appropri": 7743,
      "##omot": 7744,
      "easy": 7745,
      "##ses": 7746,
      "rick": 7747,
      "accompl": 7748,
      "wooden": 7749,
      "alco": 7750,
      "1900": 7751,
      "adaptation": 7752,
      "wright": 7753,
      "satell": 7754,
      "hundreds": 7755,
      "spoke": 7756,
      "tries": 7757,
      "drag": 7758,
      "molec": 7759,
      "immediate": 7760,
      "learn": 7761,
      "fled": 7762,
      "##iley": 7763,
      "recordings": 7764,
      "scrap": 7765,
      "insur": 7766,
      "7th": 7767,
      "##lying": 7768,
      "anyone": 7769,
      "au": 7770,
      "##iva": 7771,
      "excell": 7772,
      "pitt": 7773,
      "##rad": 7774,
      "parish": 7775,
      "assass": 7776,
      "techniques": 7777,
      "##erto": 7778,
      "check": 7779,
      "strip": 7780,
      "salv": 7781,
      "bureau": 7782,
      "anne": 7783,
      "thomp": 7784,
      "##dh": 7785,
      "coin": 7786,
      "appearing": 7787,
      "learning": 7788,
      "synthes": 7789,
      "encouraged": 7790,
      "somewh": 7791,
      "somewhat": 7792,
      "leaf": 7793,
      "veget": 7794,
      "##ras": 7795,
      "armen": 7796,
      "suffering": 7797,
      "displ": 7798,
      "prohib": 7799,
      "measures": 7800,
      "##lan": 7801,
      "##gets": 7802,
      "hub": 7803,
      "croatian": 7804,
      "poetry": 7805,
      "graphics": 7806,
      "safe": 7807,
      "##agement": 7808,
      "patri": 7809,
      "russell": 7810,
      "kelly": 7811,
      "chur": 7812,
      "5th": 7813,
      "legislation": 7814,
      "##ez": 7815,
      "bears": 7816,
      "determine": 7817,
      "premiered": 7818,
      "horror": 7819,
      "hud": 7820,
      "islam": 7821,
      "journalist": 7822,
      "dismissed": 7823,
      "usa": 7824,
      "thompson": 7825,
      "dating": 7826,
      "##cop": 7827,
      "##going": 7828,
      "06": 7829,
      "flash": 7830,
      "interests": 7831,
      "ensure": 7832,
      "pak": 7833,
      "hend": 7834,
      "facing": 7835,
      "whereas": 7836,
      "attempting": 7837,
      "margin": 7838,
      "buck": 7839,
      "nickn": 7840,
      "absor": 7841,
      "upd": 7842,
      "fighters": 7843,
      "##reck": 7844,
      "nfl": 7845,
      "fitted": 7846,
      "trophy": 7847,
      "carter": 7848,
      "depend": 7849,
      "holds": 7850,
      "##bro": 7851,
      "##agre": 7852,
      "commonwe": 7853,
      "thousand": 7854,
      "starred": 7855,
      "theor": 7856,
      "puerto": 7857,
      "enfor": 7858,
      "bats": 7859,
      "bypass": 7860,
      "attacking": 7861,
      "##body": 7862,
      "depos": 7863,
      "formerly": 7864,
      "extreme": 7865,
      "6th": 7866,
      "gent": 7867,
      "visible": 7868,
      "commonwealth": 7869,
      "questions": 7870,
      "closer": 7871,
      "conclusion": 7872,
      "biggest": 7873,
      "option": 7874,
      "spears": 7875,
      "##alo": 7876,
      "##agu": 7877,
      "##apping": 7878,
      "##itzer": 7879,
      "absence": 7880,
      "##rete": 7881,
      "##ighter": 7882,
      "hungarian": 7883,
      "productions": 7884,
      "##arn": 7885,
      "influences": 7886,
      "modified": 7887,
      "neck": 7888,
      "reprodu": 7889,
      "deemed": 7890,
      "cloth": 7891,
      "instruments": 7892,
      "lion": 7893,
      "1913": 7894,
      "diplom": 7895,
      "apparently": 7896,
      "parker": 7897,
      "##night": 7898,
      "bronze": 7899,
      "controversial": 7900,
      "batman": 7901,
      "landed": 7902,
      "landsc": 7903,
      "laboratory": 7904,
      "stor": 7905,
      "scand": 7906,
      "novels": 7907,
      "harris": 7908,
      "##ester": 7909,
      "narrative": 7910,
      "##elsen": 7911,
      "murray": 7912,
      "distributed": 7913,
      "longest": 7914,
      "1927": 7915,
      "territories": 7916,
      "leads": 7917,
      "1926": 7918,
      "gallery": 7919,
      "locomot": 7920,
      "operate": 7921,
      "understand": 7922,
      "restoration": 7923,
      "trained": 7924,
      "alph": 7925,
      "files": 7926,
      "900": 7927,
      "12th": 7928,
      "victims": 7929,
      "rhythm": 7930,
      "arrangement": 7931,
      "discip": 7932,
      "hin": 7933,
      "creative": 7934,
      "acknowled": 7935,
      "1934": 7936,
      "settle": 7937,
      "1921": 7938,
      "sees": 7939,
      "joy": 7940,
      "visitors": 7941,
      "unp": 7942,
      "uniform": 7943,
      "mainstream": 7944,
      "unsuccessful": 7945,
      "mamm": 7946,
      "weekend": 7947,
      "substit": 7948,
      "08": 7949,
      "releases": 7950,
      "refuge": 7951,
      "tone": 7952,
      "##chang": 7953,
      "representing": 7954,
      "exit": 7955,
      "dynam": 7956,
      "kw": 7957,
      "sang": 7958,
      "enh": 7959,
      "believes": 7960,
      "dna": 7961,
      "##ila": 7962,
      "##aya": 7963,
      "excess": 7964,
      "depicted": 7965,
      "influential": 7966,
      "resolution": 7967,
      "finn": 7968,
      "owners": 7969,
      "berlin": 7970,
      "##ivan": 7971,
      "coins": 7972,
      "liqu": 7973,
      "abbey": 7974,
      "basin": 7975,
      "##ares": 7976,
      "dominated": 7977,
      "yan": 7978,
      "harbor": 7979,
      "looked": 7980,
      "dre": 7981,
      "houston": 7982,
      "wol": 7983,
      "##uv": 7984,
      "##eler": 7985,
      "##apers": 7986,
      "raaf": 7987,
      "yug": 7988,
      "secured": 7989,
      "##aws": 7990,
      "churches": 7991,
      "videos": 7992,
      "santa": 7993,
      "##owa": 7994,
      "##ixon": 7995,
      "wag": 7996,
      "freder": 7997,
      "notably": 7998,
      "##roit": 7999,
      "informed": 8000,
      "comics": 8001,
      "1912": 8002,
      "casting": 8003,
      "watching": 8004,
      "legs": 8005,
      "##aska": 8006,
      "lod": 8007,
      "##illing": 8008,
      "driver": 8009,
      "giants": 8010,
      "meteor": 8011,
      "bh": 8012,
      "indians": 8013,
      "offices": 8014,
      "##asions": 8015,
      "cemet": 8016,
      "cemetery": 8017,
      "cov": 8018,
      "##ture": 8019,
      "apparent": 8020,
      "swedish": 8021,
      "sull": 8022,
      "deployed": 8023,
      "##dd": 8024,
      "imposs": 8025,
      "languages": 8026,
      "guardian": 8027,
      "simpson": 8028,
      "neighbour": 8029,
      "##atically": 8030,
      "terror": 8031,
      "ye": 8032,
      "relationships": 8033,
      "behavi": 8034,
      "aftern": 8035,
      "##ultane": 8036,
      "1932": 8037,
      "dick": 8038,
      "simultane": 8039,
      "##vis": 8040,
      "housing": 8041,
      "##asing": 8042,
      "##illed": 8043,
      "##vens": 8044,
      "##apse": 8045,
      "deliver": 8046,
      "dies": 8047,
      "##ois": 8048,
      "hearing": 8049,
      "testing": 8050,
      "device": 8051,
      "09": 8052,
      "##acent": 8053,
      "jesus": 8054,
      "opponents": 8055,
      "cabinet": 8056,
      "skills": 8057,
      "diagn": 8058,
      "tie": 8059,
      "pregn": 8060,
      "achieve": 8061,
      "pale": 8062,
      "##mun": 8063,
      "khan": 8064,
      "abd": 8065,
      "warner": 8066,
      "operational": 8067,
      "cock": 8068,
      "detail": 8069,
      "drums": 8070,
      "generated": 8071,
      "##ructure": 8072,
      "impressed": 8073,
      "intense": 8074,
      "##coming": 8075,
      "cod": 8076,
      "fab": 8077,
      "jason": 8078,
      "liz": 8079,
      "factors": 8080,
      "reportedly": 8081,
      "bun": 8082,
      "mainten": 8083,
      "dialogue": 8084,
      "surg": 8085,
      "##osure": 8086,
      "agents": 8087,
      "happened": 8088,
      "bapt": 8089,
      "emotional": 8090,
      "commemor": 8091,
      "maintenance": 8092,
      "##igg": 8093,
      "nbc": 8094,
      "##olph": 8095,
      "##ternal": 8096,
      "window": 8097,
      "download": 8098,
      "##fare": 8099,
      "render": 8100,
      "##iously": 8101,
      "yugoslav": 8102,
      "experiences": 8103,
      "disappear": 8104,
      "successor": 8105,
      "anthony": 8106,
      "agricultural": 8107,
      "firing": 8108,
      "footage": 8109,
      "employees": 8110,
      "raj": 8111,
      "mud": 8112,
      "##arts": 8113,
      "cob": 8114,
      "satur": 8115,
      "##igen": 8116,
      "somers": 8117,
      "hans": 8118,
      "dj": 8119,
      "##aled": 8120,
      "trek": 8121,
      "clay": 8122,
      "gaga": 8123,
      "rising": 8124,
      "##ache": 8125,
      "##otype": 8126,
      "detroit": 8127,
      "##tw": 8128,
      "croatia": 8129,
      "fishing": 8130,
      "ay": 8131,
      "teeth": 8132,
      "defended": 8133,
      "laur": 8134,
      "negotiations": 8135,
      "um": 8136,
      "zero": 8137,
      "lowest": 8138,
      "scientists": 8139,
      "lose": 8140,
      "gilbert": 8141,
      "sure": 8142,
      "revolutionary": 8143,
      "1929": 8144,
      "stem": 8145,
      "kal": 8146,
      "##icial": 8147,
      "belg": 8148,
      "executed": 8149,
      "ark": 8150,
      "cher": 8151,
      "1911": 8152,
      "fried": 8153,
      "medium": 8154,
      "discussed": 8155,
      "personality": 8156,
      "feud": 8157,
      "140": 8158,
      "normally": 8159,
      "treated": 8160,
      "sic": 8161,
      "seas": 8162,
      "lob": 8163,
      "format": 8164,
      "##aints": 8165,
      "tribute": 8166,
      "atlant": 8167,
      "enters": 8168,
      "portra": 8169,
      "asian": 8170,
      "interstate": 8171,
      "afternoon": 8172,
      "tenth": 8173,
      "sympt": 8174,
      "##anny": 8175,
      "stewart": 8176,
      "radar": 8177,
      "1931": 8178,
      "resign": 8179,
      "drawing": 8180,
      "1922": 8181,
      "carib": 8182,
      "residential": 8183,
      "##achment": 8184,
      "melbourne": 8185,
      "##ontin": 8186,
      "storms": 8187,
      "clinton": 8188,
      "arrest": 8189,
      "flew": 8190,
      "resigned": 8191,
      "accompany": 8192,
      "difference": 8193,
      "vessel": 8194,
      "advoc": 8195,
      "detailed": 8196,
      "ethnic": 8197,
      "inhabit": 8198,
      "breat": 8199,
      "boil": 8200,
      "##iliar": 8201,
      "tornado": 8202,
      "goods": 8203,
      "origins": 8204,
      "05": 8205,
      "aged": 8206,
      "evans": 8207,
      "formally": 8208,
      "pointed": 8209,
      "innov": 8210,
      "nielsen": 8211,
      "cz": 8212,
      "partnership": 8213,
      "technique": 8214,
      "militia": 8215,
      "reveals": 8216,
      "prevented": 8217,
      "synd": 8218,
      "preferred": 8219,
      "##oen": 8220,
      "loop": 8221,
      "xbox": 8222,
      "##sa": 8223,
      "##inces": 8224,
      "3d": 8225,
      "pushed": 8226,
      "stable": 8227,
      "prosp": 8228,
      "glac": 8229,
      "tempor": 8230,
      "forb": 8231,
      "directors": 8232,
      "manh": 8233,
      "metro": 8234,
      "keeping": 8235,
      "huge": 8236,
      "erect": 8237,
      "arriving": 8238,
      "apprec": 8239,
      "fung": 8240,
      "##ertain": 8241,
      "exposed": 8242,
      "organizations": 8243,
      "isolated": 8244,
      "rit": 8245,
      "institution": 8246,
      "neighborhood": 8247,
      "sisters": 8248,
      "##orous": 8249,
      "##rees": 8250,
      "substantial": 8251,
      "##sk": 8252,
      "disturb": 8253,
      "forty": 8254,
      "partly": 8255,
      "handed": 8256,
      "sevent": 8257,
      "moments": 8258,
      "forec": 8259,
      "muslim": 8260,
      "##asts": 8261,
      "marshall": 8262,
      "fel": 8263,
      "##arf": 8264,
      "samuel": 8265,
      "linked": 8266,
      "##using": 8267,
      "founder": 8268,
      "federation": 8269,
      "mall": 8270,
      "phen": 8271,
      "tan": 8272,
      "catal": 8273,
      "turkish": 8274,
      "sarah": 8275,
      "##oral": 8276,
      "imprison": 8277,
      "analy": 8278,
      "benn": 8279,
      "mack": 8280,
      "departed": 8281,
      "##mad": 8282,
      "##bit": 8283,
      "austria": 8284,
      "##rose": 8285,
      "herald": 8286,
      "continental": 8287,
      "designer": 8288,
      "factory": 8289,
      "##iner": 8290,
      "enthus": 8291,
      "##vere": 8292,
      "colorado": 8293,
      "insc": 8294,
      "lennon": 8295,
      "existed": 8296,
      "fifteen": 8297,
      "frequent": 8298,
      "pione": 8299,
      "grace": 8300,
      "avo": 8301,
      "dramatic": 8302,
      "##phy": 8303,
      "greece": 8304,
      "impossible": 8305,
      "##ologists": 8306,
      "periods": 8307,
      "ranking": 8308,
      "instrumental": 8309,
      "proced": 8310,
      "recip": 8311,
      "extent": 8312,
      "symp": 8313,
      "occupation": 8314,
      "wedding": 8315,
      "##20": 8316,
      "baltim": 8317,
      "##bean": 8318,
      "participate": 8319,
      "concerts": 8320,
      "170": 8321,
      "moral": 8322,
      "instance": 8323,
      "baltimore": 8324,
      "load": 8325,
      "shock": 8326,
      "armament": 8327,
      "aqu": 8328,
      "seeking": 8329,
      "hunt": 8330,
      "initi": 8331,
      "mail": 8332,
      "##usted": 8333,
      "cruisers": 8334,
      "helic": 8335,
      "scholar": 8336,
      "alter": 8337,
      "##inder": 8338,
      "anticip": 8339,
      "malays": 8340,
      "deputy": 8341,
      "##aria": 8342,
      "teamm": 8343,
      "specimens": 8344,
      "##spec": 8345,
      "apple": 8346,
      "taught": 8347,
      "##ressed": 8348,
      "turb": 8349,
      "oxy": 8350,
      "sullivan": 8351,
      "##otes": 8352,
      "finale": 8353,
      "verse": 8354,
      "ghost": 8355,
      "seek": 8356,
      "##olis": 8357,
      "nag": 8358,
      "##oust": 8359,
      "15th": 8360,
      "rarely": 8361,
      "##rating": 8362,
      "##olas": 8363,
      "ern": 8364,
      "gates": 8365,
      "ml": 8366,
      "aware": 8367,
      "smooth": 8368,
      "amendment": 8369,
      "newspapers": 8370,
      "##music": 8371,
      "friendly": 8372,
      "creator": 8373,
      "dave": 8374,
      "py": 8375,
      "spending": 8376,
      "dir": 8377,
      "diameter": 8378,
      "##osing": 8379,
      "rav": 8380,
      "upgraded": 8381,
      "##rum": 8382,
      "alab": 8383,
      "absol": 8384,
      "metropolitan": 8385,
      "doesn": 8386,
      "withdrew": 8387,
      "andre": 8388,
      "relie": 8389,
      "precip": 8390,
      "arena": 8391,
      "##lie": 8392,
      "##esis": 8393,
      "chase": 8394,
      "mario": 8395,
      "assess": 8396,
      "divor": 8397,
      "1928": 8398,
      "poison": 8399,
      "listen": 8400,
      "frederick": 8401,
      "timber": 8402,
      "exhibition": 8403,
      "mathemat": 8404,
      "covers": 8405,
      "##idae": 8406,
      "picked": 8407,
      "encountered": 8408,
      "procl": 8409,
      "##phone": 8410,
      "##iami": 8411,
      "##umin": 8412,
      "lect": 8413,
      "permission": 8414,
      "chanc": 8415,
      "boss": 8416,
      "pounds": 8417,
      "joining": 8418,
      "affair": 8419,
      "##eu": 8420,
      "refere": 8421,
      "10th": 8422,
      "swift": 8423,
      "##col": 8424,
      "gab": 8425,
      "collaps": 8426,
      "plus": 8427,
      "difficulties": 8428,
      "policies": 8429,
      "rates": 8430,
      "changing": 8431,
      "schedule": 8432,
      "skull": 8433,
      "##obi": 8434,
      "somerset": 8435,
      "pc": 8436,
      "##boy": 8437,
      "legislature": 8438,
      "1925": 8439,
      "jess": 8440,
      "inaug": 8441,
      "mississ": 8442,
      "multi": 8443,
      "cous": 8444,
      "##roke": 8445,
      "suicide": 8446,
      "partially": 8447,
      "inqu": 8448,
      "##ora": 8449,
      "##sea": 8450,
      "##opter": 8451,
      "anch": 8452,
      "restrict": 8453,
      "turrets": 8454,
      "napole": 8455,
      "merchant": 8456,
      "sank": 8457,
      "anna": 8458,
      "trend": 8459,
      "advice": 8460,
      "##anium": 8461,
      "anglo": 8462,
      "bombers": 8463,
      "##borough": 8464,
      "athletic": 8465,
      "miami": 8466,
      "seed": 8467,
      "holl": 8468,
      "##enh": 8469,
      "loan": 8470,
      "physic": 8471,
      "pilots": 8472,
      "cha": 8473,
      "aggress": 8474,
      "##aire": 8475,
      "unn": 8476,
      "disaster": 8477,
      "restric": 8478,
      "adjacent": 8479,
      "roc": 8480,
      "traveled": 8481,
      "refers": 8482,
      "gap": 8483,
      "sector": 8484,
      "comments": 8485,
      "seattle": 8486,
      "margar": 8487,
      "pref": 8488,
      "1924": 8489,
      "##mi": 8490,
      "rebellion": 8491,
      "agree": 8492,
      "mines": 8493,
      "kl": 8494,
      "explo": 8495,
      "waves": 8496,
      "plain": 8497,
      "param": 8498,
      "1920s": 8499,
      "philosophy": 8500,
      "07": 8501,
      "9th": 8502,
      "seats": 8503,
      "gardens": 8504,
      "signs": 8505,
      "danc": 8506,
      "proport": 8507,
      "harbour": 8508,
      "infr": 8509,
      "cot": 8510,
      "jar": 8511,
      "marry": 8512,
      "##die": 8513,
      "##amese": 8514,
      "pitched": 8515,
      "minimum": 8516,
      "##eing": 8517,
      "shakes": 8518,
      "criticised": 8519,
      "iowa": 8520,
      "coordin": 8521,
      "meat": 8522,
      "municipal": 8523,
      "soldier": 8524,
      "bases": 8525,
      "alabama": 8526,
      "soil": 8527,
      "australians": 8528,
      "destroyers": 8529,
      "##rot": 8530,
      "##chell": 8531,
      "prompted": 8532,
      "compete": 8533,
      "struggle": 8534,
      "eagle": 8535,
      "##ican": 8536,
      "##imb": 8537,
      "remove": 8538,
      "overl": 8539,
      "surprise": 8540,
      "bom": 8541,
      "indicate": 8542,
      "carp": 8543,
      "##attan": 8544,
      "whil": 8545,
      "km2": 8546,
      "collapse": 8547,
      "communication": 8548,
      "bros": 8549,
      "##inction": 8550,
      "manusc": 8551,
      "potter": 8552,
      "neutral": 8553,
      "caribbean": 8554,
      "##uster": 8555,
      "medicine": 8556,
      "branc": 8557,
      "##power": 8558,
      "lawrence": 8559,
      "spiritual": 8560,
      "charlie": 8561,
      "manuscript": 8562,
      "forcing": 8563,
      "indeed": 8564,
      "halo": 8565,
      "string": 8566,
      "designation": 8567,
      "grown": 8568,
      "minnes": 8569,
      "satellite": 8570,
      "armored": 8571,
      "1923": 8572,
      "enterprise": 8573,
      "blow": 8574,
      "14th": 8575,
      "powered": 8576,
      "walker": 8577,
      "electron": 8578,
      "##attered": 8579,
      "yor": 8580,
      "##rom": 8581,
      "copy": 8582,
      "teaching": 8583,
      "paintings": 8584,
      "whilst": 8585,
      "stream": 8586,
      "sufficient": 8587,
      "collaboration": 8588,
      "##isd": 8589,
      "restaurant": 8590,
      "citing": 8591,
      "##eland": 8592,
      "recon": 8593,
      "survivors": 8594,
      "protagonist": 8595,
      "values": 8596,
      "yanke": 8597,
      "fifty": 8598,
      "##ascar": 8599,
      "ian": 8600,
      "##udes": 8601,
      "wreck": 8602,
      "myster": 8603,
      "marketing": 8604,
      "possession": 8605,
      "kon": 8606,
      "nam": 8607,
      "covering": 8608,
      "appointment": 8609,
      "uncertain": 8610,
      "tip": 8611,
      "benefit": 8612,
      "ry": 8613,
      "##nings": 8614,
      "describe": 8615,
      "provinc": 8616,
      "approval": 8617,
      "rounds": 8618,
      "multipl": 8619,
      "ecc": 8620,
      "capit": 8621,
      "encounter": 8622,
      "nazi": 8623,
      "nut": 8624,
      "candidates": 8625,
      "travelled": 8626,
      "depending": 8627,
      "##pan": 8628,
      "pretty": 8629,
      "##gas": 8630,
      "charter": 8631,
      "understanding": 8632,
      "fortress": 8633,
      "poems": 8634,
      "balance": 8635,
      "reconna": 8636,
      "dispute": 8637,
      "hungary": 8638,
      "brill": 8639,
      "pant": 8640,
      "femin": 8641,
      "##usal": 8642,
      "orbit": 8643,
      "oxygen": 8644,
      "01": 8645,
      "pine": 8646,
      "##rates": 8647,
      "victories": 8648,
      "benj": 8649,
      "cyl": 8650,
      "dollars": 8651,
      "controll": 8652,
      "listing": 8653,
      "situated": 8654,
      "recur": 8655,
      "bowling": 8656,
      "displayed": 8657,
      "battalions": 8658,
      "brun": 8659,
      "villages": 8660,
      "articles": 8661,
      "minimal": 8662,
      "hamp": 8663,
      "christopher": 8664,
      "##encing": 8665,
      "survive": 8666,
      "violent": 8667,
      "belgium": 8668,
      "rugby": 8669,
      "legislative": 8670,
      "reconnaissance": 8671,
      "earthqu": 8672,
      "alive": 8673,
      "serial": 8674,
      "dock": 8675,
      "##itter": 8676,
      "sib": 8677,
      "assisted": 8678,
      "closing": 8679,
      "telling": 8680,
      "wake": 8681,
      "degrees": 8682,
      "playoffs": 8683,
      "gear": 8684,
      "jok": 8685,
      "publications": 8686,
      "diego": 8687,
      "cargo": 8688,
      "priest": 8689,
      "forests": 8690,
      "prol": 8691,
      "software": 8692,
      "dancing": 8693,
      "interpre": 8694,
      "ski": 8695,
      "amongst": 8696,
      "helping": 8697,
      "funeral": 8698,
      "symptoms": 8699,
      "shakesp": 8700,
      "marks": 8701,
      "colonies": 8702,
      "##car": 8703,
      "clock": 8704,
      "eliminated": 8705,
      "guil": 8706,
      "concrete": 8707,
      "sugar": 8708,
      "tomb": 8709,
      "benjamin": 8710,
      "nad": 8711,
      "acted": 8712,
      "shakespear": 8713,
      "bot": 8714,
      "asks": 8715,
      "hipp": 8716,
      "riders": 8717,
      "##avery": 8718,
      "monster": 8719,
      "michel": 8720,
      "alfred": 8721,
      "behaviour": 8722,
      "simpl": 8723,
      "administrative": 8724,
      "purposes": 8725,
      "##ecraft": 8726,
      "drivers": 8727,
      "##velt": 8728,
      "1908": 8729,
      "hong": 8730,
      "##imeter": 8731,
      "pron": 8732,
      "circumst": 8733,
      "repairs": 8734,
      "1905": 8735,
      "##atus": 8736,
      "compilation": 8737,
      "occasions": 8738,
      "pic": 8739,
      "fatal": 8740,
      "mississipp": 8741,
      "1909": 8742,
      "mason": 8743,
      "##jan": 8744,
      "blind": 8745,
      "inland": 8746,
      "quiet": 8747,
      "pars": 8748,
      "pool": 8749,
      "roose": 8750,
      "statue": 8751,
      "alcohol": 8752,
      "##iller": 8753,
      "kurt": 8754,
      "minnesota": 8755,
      "03": 8756,
      "##iac": 8757,
      "##elle": 8758,
      "vietn": 8759,
      "##chen": 8760,
      "tang": 8761,
      "conte": 8762,
      "crus": 8763,
      "vietnamese": 8764,
      "lists": 8765,
      "phr": 8766,
      "kin": 8767,
      "11th": 8768,
      "attendance": 8769,
      "horiz": 8770,
      "cannon": 8771,
      "preserved": 8772,
      "##ouri": 8773,
      "preparation": 8774,
      "105": 8775,
      "publicly": 8776,
      "grammy": 8777,
      "console": 8778,
      "anime": 8779,
      "organisation": 8780,
      "21st": 8781,
      "04": 8782,
      "##sky": 8783,
      "businesses": 8784,
      "mental": 8785,
      "##inals": 8786,
      "##lev": 8787,
      "125": 8788,
      "stevens": 8789,
      "manhattan": 8790,
      "sick": 8791,
      "##rm": 8792,
      "abilities": 8793,
      "voiced": 8794,
      "concurr": 8795,
      "communications": 8796,
      "##esses": 8797,
      "highways": 8798,
      "wider": 8799,
      "defeating": 8800,
      "illness": 8801,
      "trouble": 8802,
      "dc": 8803,
      "##gate": 8804,
      "##ographical": 8805,
      "franklin": 8806,
      "##agen": 8807,
      "##uman": 8808,
      "export": 8809,
      "argument": 8810,
      "elabor": 8811,
      "touring": 8812,
      "sas": 8813,
      "signal": 8814,
      "##lus": 8815,
      "ammun": 8816,
      "roosevelt": 8817,
      "##ounced": 8818,
      "resumed": 8819,
      "jet": 8820,
      "##sex": 8821,
      "residence": 8822,
      "kansas": 8823,
      "##orph": 8824,
      "1907": 8825,
      "competed": 8826,
      "believing": 8827,
      "intensified": 8828,
      "##ivated": 8829,
      "vs": 8830,
      "surge": 8831,
      "##atherine": 8832,
      "164": 8833,
      "archb": 8834,
      "ammunition": 8835,
      "icon": 8836,
      "alignment": 8837,
      "crews": 8838,
      "coff": 8839,
      "excav": 8840,
      "thinking": 8841,
      "##lyn": 8842,
      "dollar": 8843,
      "flights": 8844,
      "counties": 8845,
      "portland": 8846,
      "airborne": 8847,
      "backing": 8848,
      "fallen": 8849,
      "montreal": 8850,
      "opponent": 8851,
      "strategic": 8852,
      "documents": 8853,
      "spar": 8854,
      "##uda": 8855,
      "##ishment": 8856,
      "signing": 8857,
      "subjects": 8858,
      "##fire": 8859,
      "##acle": 8860,
      "deliber": 8861,
      "nash": 8862,
      "amate": 8863,
      "##kel": 8864,
      "usd": 8865,
      "assists": 8866,
      "walking": 8867,
      "friendship": 8868,
      "dri": 8869,
      "##ulating": 8870,
      "willing": 8871,
      "audiences": 8872,
      "ceremon": 8873,
      "proc": 8874,
      "alternate": 8875,
      "usual": 8876,
      "destro": 8877,
      "telegr": 8878,
      "biographer": 8879,
      "cinema": 8880,
      "philippines": 8881,
      "suitable": 8882,
      "genetic": 8883,
      "si": 8884,
      "165": 8885,
      "interesting": 8886,
      "doubt": 8887,
      "atomic": 8888,
      "abol": 8889,
      "engineers": 8890,
      "rush": 8891,
      "forg": 8892,
      "guer": 8893,
      "select": 8894,
      "liv": 8895,
      "mississippi": 8896,
      "##sters": 8897,
      "##emen": 8898,
      "curt": 8899,
      "feelings": 8900,
      "radical": 8901,
      "##point": 8902,
      "woods": 8903,
      "saturday": 8904,
      "chand": 8905,
      "noble": 8906,
      "loyal": 8907,
      "provincial": 8908,
      "guards": 8909,
      "tribes": 8910,
      "underw": 8911,
      "percentage": 8912,
      "submitted": 8913,
      "completing": 8914,
      "waiting": 8915,
      "nit": 8916,
      "vinc": 8917,
      "ownership": 8918,
      "explosion": 8919,
      "functions": 8920,
      "adopt": 8921,
      "alexand": 8922,
      "ramp": 8923,
      "charity": 8924,
      "behalf": 8925,
      "pearl": 8926,
      "##itated": 8927,
      "goth": 8928,
      "##donald": 8929,
      "asking": 8930,
      "autobi": 8931,
      "##iveness": 8932,
      "hook": 8933,
      "por": 8934,
      "tast": 8935,
      "scor": 8936,
      "disord": 8937,
      "artistic": 8938,
      "polar": 8939,
      "tenness": 8940,
      "retail": 8941,
      "campbell": 8942,
      "shakespeare": 8943,
      "evolved": 8944,
      "##ods": 8945,
      "##odore": 8946,
      "stick": 8947,
      "chest": 8948,
      "##ifer": 8949,
      "hindu": 8950,
      "##mo": 8951,
      "##dale": 8952,
      "chronicle": 8953,
      "frust": 8954,
      "targets": 8955,
      "false": 8956,
      "revenue": 8957,
      "obv": 8958,
      "steven": 8959,
      "##rator": 8960,
      "quad": 8961,
      "frig": 8962,
      "registered": 8963,
      "ted": 8964,
      "remark": 8965,
      "wire": 8966,
      "butter": 8967,
      "retrie": 8968,
      "birthday": 8969,
      "##fe": 8970,
      "nep": 8971,
      "##ova": 8972,
      "lakes": 8973,
      "rice": 8974,
      "suspended": 8975,
      "##onymous": 8976,
      "cartoon": 8977,
      "cass": 8978,
      "astronom": 8979,
      "hole": 8980,
      "##ader": 8981,
      "favorable": 8982,
      "mik": 8983,
      "warren": 8984,
      "josh": 8985,
      "movies": 8986,
      "reluct": 8987,
      "lucas": 8988,
      "civilian": 8989,
      "beauty": 8990,
      "poorly": 8991,
      "borough": 8992,
      "provision": 8993,
      "heading": 8994,
      "guilty": 8995,
      "ideal": 8996,
      "egyptian": 8997,
      "mush": 8998,
      "carn": 8999,
      "replacing": 9000,
      "hob": 9001,
      "forth": 9002,
      "brick": 9003,
      "comfort": 9004,
      "liked": 9005,
      "pace": 9006,
      "##oto": 9007,
      "##gression": 9008,
      "pup": 9009,
      "stores": 9010,
      "margaret": 9011,
      "##din": 9012,
      "cliff": 9013,
      "armies": 9014,
      "shells": 9015,
      "aimed": 9016,
      "offering": 9017,
      "solution": 9018,
      "measured": 9019,
      "stu": 9020,
      "missouri": 9021,
      "tennessee": 9022,
      "##elli": 9023,
      "##inea": 9024,
      "boundary": 9025,
      "engagement": 9026,
      "clearly": 9027,
      "sig": 9028,
      "acceler": 9029,
      "underst": 9030,
      "louisiana": 9031,
      "rocks": 9032,
      "##enz": 9033,
      "1906": 9034,
      "360": 9035,
      "expensive": 9036,
      "temporarily": 9037,
      "palest": 9038,
      "aviation": 9039,
      "recognised": 9040,
      "simultaneously": 9041,
      "shipping": 9042,
      "1904": 9043,
      "##ski": 9044,
      "##lah": 9045,
      "execut": 9046,
      "filed": 9047,
      "vulner": 9048,
      "##lec": 9049,
      "sequences": 9050,
      "##uable": 9051,
      "gran": 9052,
      "osc": 9053,
      "##hu": 9054,
      "##ci": 9055,
      "##bu": 9056,
      "##athy": 9057,
      "remnants": 9058,
      "ze": 9059,
      "feather": 9060,
      "storage": 9061,
      "billy": 9062,
      "gene": 9063,
      "chel": 9064,
      "represents": 9065,
      "taxon": 9066,
      "galax": 9067,
      "agriculture": 9068,
      "##yon": 9069,
      "blocks": 9070,
      "craw": 9071,
      "monaster": 9072,
      "joh": 9073,
      "context": 9074,
      "readers": 9075,
      "essential": 9076,
      "conspir": 9077,
      "##wned": 9078,
      "wore": 9079,
      "wants": 9080,
      "euro": 9081,
      "saved": 9082,
      "harvey": 9083,
      "coverage": 9084,
      "recommend": 9085,
      "err": 9086,
      "mitchell": 9087,
      "kirk": 9088,
      "talent": 9089,
      "##rix": 9090,
      "comparison": 9091,
      "coc": 9092,
      "mining": 9093,
      "sket": 9094,
      "patterns": 9095,
      "clin": 9096,
      "coinc": 9097,
      "cancelled": 9098,
      "phoen": 9099,
      "##oming": 9100,
      "propag": 9101,
      "czech": 9102,
      "pok": 9103,
      "##ante": 9104,
      "karl": 9105,
      "tight": 9106,
      "##father": 9107,
      "aside": 9108,
      "surgery": 9109,
      "stern": 9110,
      "institutions": 9111,
      "perspective": 9112,
      "suggesting": 9113,
      "overseas": 9114,
      "phone": 9115,
      "subspec": 9116,
      "faster": 9117,
      "##ribed": 9118,
      "thirteen": 9119,
      "spotted": 9120,
      "##essive": 9121,
      "familiar": 9122,
      "maneu": 9123,
      "matters": 9124,
      "reflected": 9125,
      "wasn": 9126,
      "practices": 9127,
      "contributions": 9128,
      "##bra": 9129,
      "graham": 9130,
      "rebuilt": 9131,
      "notice": 9132,
      "furn": 9133,
      "gw": 9134,
      "protein": 9135,
      "empt": 9136,
      "##issions": 9137,
      "dogs": 9138,
      "lesser": 9139,
      "fastest": 9140,
      "mys": 9141,
      "hunter": 9142,
      "globe": 9143,
      "dy": 9144,
      "##ylan": 9145,
      "predomin": 9146,
      "application": 9147,
      "##iary": 9148,
      "##life": 9149,
      "parent": 9150,
      "115": 9151,
      "furthermore": 9152,
      "##ctic": 9153,
      "bah": 9154,
      "toky": 9155,
      "shadow": 9156,
      "##artney": 9157,
      "destroyer": 9158,
      "pulled": 9159,
      "vertical": 9160,
      "##bal": 9161,
      "archbishop": 9162,
      "ranks": 9163,
      "skel": 9164,
      "oliv": 9165,
      "crystal": 9166,
      "escaped": 9167,
      "roots": 9168,
      "flagship": 9169,
      "badly": 9170,
      "ariz": 9171,
      "##mat": 9172,
      "satisf": 9173,
      "sult": 9174,
      "##ss": 9175,
      "strict": 9176,
      "subspecies": 9177,
      "anat": 9178,
      "jobs": 9179,
      "amounts": 9180,
      "lacked": 9181,
      "cuba": 9182,
      "drugs": 9183,
      "sq": 9184,
      "drove": 9185,
      "cave": 9186,
      "##estone": 9187,
      "allmusic": 9188,
      "decides": 9189,
      "exclud": 9190,
      "slaves": 9191,
      "bombs": 9192,
      "panel": 9193,
      "autumn": 9194,
      "assert": 9195,
      "confederate": 9196,
      "bulk": 9197,
      "argues": 9198,
      "intellect": 9199,
      "wicket": 9200,
      "marie": 9201,
      "##oh": 9202,
      "subur": 9203,
      "portions": 9204,
      "triang": 9205,
      "indies": 9206,
      "##vereign": 9207,
      "##kshire": 9208,
      "sovereign": 9209,
      "unex": 9210,
      "controls": 9211,
      "expression": 9212,
      "squadrons": 9213,
      "quarterback": 9214,
      "severely": 9215,
      "##anche": 9216,
      "swit": 9217,
      "inhabitants": 9218,
      "earning": 9219,
      "tamil": 9220,
      "tale": 9221,
      "##hips": 9222,
      "striking": 9223,
      "biography": 9224,
      "summit": 9225,
      "tort": 9226,
      "spider": 9227,
      "persian": 9228,
      "##urally": 9229,
      "starring": 9230,
      "printed": 9231,
      "distinctive": 9232,
      "warship": 9233,
      "ambass": 9234,
      "tack": 9235,
      "condem": 9236,
      "mainland": 9237,
      "nik": 9238,
      "vast": 9239,
      "guitarist": 9240,
      "sony": 9241,
      "toy": 9242,
      "ferry": 9243,
      "observations": 9244,
      "##unes": 9245,
      "173": 9246,
      "arizona": 9247,
      "##nie": 9248,
      "chick": 9249,
      "coron": 9250,
      "101": 9251,
      "godd": 9252,
      "bonus": 9253,
      "restricted": 9254,
      "rib": 9255,
      "wish": 9256,
      "characterized": 9257,
      "stere": 9258,
      "orth": 9259,
      "constitutional": 9260,
      "planets": 9261,
      "liberty": 9262,
      "excellent": 9263,
      "##inations": 9264,
      "asc": 9265,
      "ranging": 9266,
      "jury": 9267,
      "bald": 9268,
      "dylan": 9269,
      "visiting": 9270,
      "sitting": 9271,
      "##fr": 9272,
      "spend": 9273,
      "##ieties": 9274,
      "##ucing": 9275,
      "commanding": 9276,
      "##lings": 9277,
      "##bec": 9278,
      "lt": 9279,
      "revival": 9280,
      "definition": 9281,
      "phenom": 9282,
      "##equ": 9283,
      "##fa": 9284,
      "##fish": 9285,
      "maur": 9286,
      "fixed": 9287,
      "vib": 9288,
      "##rants": 9289,
      "rings": 9290,
      "plut": 9291,
      "##oga": 9292,
      "wilhel": 9293,
      "wait": 9294,
      "wine": 9295,
      "##idency": 9296,
      "meetings": 9297,
      "fault": 9298,
      "nominations": 9299,
      "holiday": 9300,
      "tiss": 9301,
      "threw": 9302,
      "tru": 9303,
      "explain": 9304,
      "explains": 9305,
      "bombing": 9306,
      "bone": 9307,
      "hav": 9308,
      "athletes": 9309,
      "ultimate": 9310,
      "dominant": 9311,
      "##cements": 9312,
      "spac": 9313,
      "carriers": 9314,
      "pill": 9315,
      "statistics": 9316,
      "demonstrated": 9317,
      "amateur": 9318,
      "tig": 9319,
      "acoust": 9320,
      "arrive": 9321,
      "oklah": 9322,
      "illegal": 9323,
      "broadway": 9324,
      "##tle": 9325,
      "amph": 9326,
      "marvel": 9327,
      "educational": 9328,
      "parliamentary": 9329,
      "##unction": 9330,
      "metall": 9331,
      "artific": 9332,
      "174": 9333,
      "austrian": 9334,
      "danger": 9335,
      "##owed": 9336,
      "founding": 9337,
      "hidden": 9338,
      "yield": 9339,
      "mrs": 9340,
      "dust": 9341,
      "switzer": 9342,
      "8th": 9343,
      "##asa": 9344,
      "lex": 9345,
      "consol": 9346,
      "rook": 9347,
      "##ensis": 9348,
      "artwork": 9349,
      "grave": 9350,
      "coat": 9351,
      "northward": 9352,
      "prepare": 9353,
      "heir": 9354,
      "arist": 9355,
      "1901": 9356,
      "aerial": 9357,
      "##away": 9358,
      "comed": 9359,
      "steps": 9360,
      "census": 9361,
      "rever": 9362,
      "abund": 9363,
      "switzerland": 9364,
      "pm": 9365,
      "##storm": 9366,
      "flower": 9367,
      "murphy": 9368,
      "predicted": 9369,
      "talking": 9370,
      "##ige": 9371,
      "beam": 9372,
      "amy": 9373,
      "vii": 9374,
      "experimental": 9375,
      "push": 9376,
      "##ni": 9377,
      "##rod": 9378,
      "##tha": 9379,
      "declar": 9380,
      "conversion": 9381,
      "reaches": 9382,
      "peaking": 9383,
      "barry": 9384,
      "##aro": 9385,
      "dread": 9386,
      "slave": 9387,
      "delaware": 9388,
      "overt": 9389,
      "millimet": 9390,
      "predict": 9391,
      "cruc": 9392,
      "ticket": 9393,
      "02": 9394,
      "feeding": 9395,
      "bour": 9396,
      "conscious": 9397,
      "lanes": 9398,
      "lon": 9399,
      "abc": 9400,
      "households": 9401,
      "##aun": 9402,
      "disagre": 9403,
      "symphony": 9404,
      "##eled": 9405,
      "overw": 9406,
      "ballad": 9407,
      "apartment": 9408,
      "mate": 9409,
      "oklahoma": 9410,
      "berg": 9411,
      "##uations": 9412,
      "accum": 9413,
      "innoc": 9414,
      "mong": 9415,
      "##uma": 9416,
      "155": 9417,
      "westward": 9418,
      "feels": 9419,
      "liquid": 9420,
      "rio": 9421,
      "baker": 9422,
      "seriously": 9423,
      "bach": 9424,
      "patron": 9425,
      "obtain": 9426,
      "laugh": 9427,
      "backed": 9428,
      "repeatedly": 9429,
[...]
